<unk>	0
<s>	0
</s>	0
<pad>	0
▁.	-2.98553
▁,	-3.19265
▁bir	-3.81194
;	-3.86366
▁&	-3.86916
▁ve	-4.11272
t	-4.1331
quo	-4.46147
▁	-4.51943
▁bu	-4.56741
apos	-4.70061
n	-4.7841
a	-5.09729
▁için	-5.15251
▁Bu	-5.15768
e	-5.20126
▁da	-5.20203
▁Ve	-5.4121
▁çok	-5.42126
▁de	-5.42832
▁?	-5.48116
lar	-5.50484
m	-5.53882
▁daha	-5.54275
k	-5.5531
▁ki	-5.7953
▁)	-5.80305
(	-5.80389
ler	-5.82657
▁var	-5.83811
▁:	-5.8506
▁gibi	-5.87464
▁olarak	-5.90861
i	-5.92492
▁şey	-5.99098
▁—	-6.03274
▁...	-6.0345
▁ne	-6.05971
▁olan	-6.09053
▁kadar	-6.14257
▁o	-6.18541
▁en	-6.21328
den	-6.23479
▁her	-6.24715
nın	-6.31295
▁ile	-6.33173
▁ya	-6.33611
▁değil	-6.33986
de	-6.35105
nin	-6.35303
ları	-6.37913
la	-6.38061
da	-6.38309
leri	-6.38474
ya	-6.38525
le	-6.4008
dan	-6.41267
▁ama	-6.46165
▁olduğunu	-6.46743
▁iyi	-6.47424
▁Ama	-6.51091
▁zaman	-6.51501
ye	-6.51566
▁büyük	-6.51785
▁sonra	-6.52313
▁bunu	-6.52644
▁Bir	-6.52651
▁nasıl	-6.54105
na	-6.57008
▁sadece	-6.60745
er	-6.63702
▁çünkü	-6.68159
in	-6.68607
ki	-6.69832
▁şekilde	-6.72186
z	-6.73924
▁önce	-6.7521
▁şu	-6.75302
.	-6.78318
▁fazla	-6.7872
ce	-6.79367
-	-6.81633
si	-6.82552
p	-6.82769
▁iki	-6.82844
ü	-6.83563
li	-6.83614
▁yıl	-6.84102
yi	-6.85061
ı	-6.87742
▁O	-6.87937
dir	-6.88134
▁aynı	-6.88325
▁gerçekten	-6.88534
▁yeni	-6.88865
ne	-6.91227
▁Yani	-6.92938
▁Şimdi	-6.96275
▁benim	-6.9868
▁insan	-6.99825
▁hakkında	-7.00465
▁olduğu	-7.005
▁ben	-7.0194
yı	-7.0353
▁tüm	-7.03698
▁Ben	-7.03958
en	-7.05806
▁farklı	-7.06283
▁ilk	-7.0704
dır	-7.07887
▁;	-7.09051
▁içinde	-7.10152
▁insanlar	-7.1017
larını	-7.11309
lerin	-7.11476
s	-7.11532
ların	-7.11636
▁kendi	-7.11729
▁ilgili	-7.12663
▁diğer	-7.12943
▁aslında	-7.13088
▁sahip	-7.1447
▁bunun	-7.14528
▁mi	-7.14551
▁küçük	-7.14929
▁Gülüşmeler	-7.15838
▁yok	-7.15845
uz	-7.16495
▁veya	-7.16504
▁başka	-7.1656
lı	-7.18818
di	-7.19165
▁bile	-7.19642
▁♫	-7.20327
▁doğru	-7.20572
r	-7.22496
▁ise	-7.22544
▁burada	-7.22913
lerini	-7.23809
ca	-7.23856
sı	-7.24247
l	-7.2453
▁önemli	-7.25778
▁eğer	-7.25845
▁bana	-7.27152
yla	-7.27955
▁Faka	-7.28964
▁in	-7.298
▁şeyler	-7.30122
▁biri	-7.31107
▁size	-7.32814
▁biz	-7.33426
▁bizim	-7.33731
▁Eğ	-7.33992
▁tek	-7.35437
u	-7.35646
yle	-7.35873
▁biraz	-7.35982
lara	-7.38663
▁gün	-7.39133
▁insanların	-7.39375
lik	-7.39781
ın	-7.39826
ken	-7.3996
▁son	-7.40429
▁bütün	-7.40606
▁hiç	-7.41235
ma	-7.41647
lere	-7.42359
▁oldu	-7.43104
▁geri	-7.44765
▁Bunu	-7.45951
y	-7.46129
▁diye	-7.47928
▁yüzden	-7.48098
ni	-7.48462
um	-7.48526
▁neden	-7.48545
▁zamanda	-7.50116
▁vardı	-7.50719
▁böyle	-7.50986
▁az	-7.51534
▁Çünk	-7.52054
▁Kahkaha	-7.53604
▁üzerinde	-7.54016
▁tarafından	-7.54597
▁onu	-7.54782
▁bazı	-7.54964
▁karşı	-7.55751
▁-	-7.55899
▁tam	-7.56165
ndan	-7.56988
▁göre	-7.57017
iz	-7.58047
▁an	-7.58895
▁şimdi	-7.59052
▁yer	-7.59664
▁yapmak	-7.59975
▁iş	-7.60338
▁İşte	-7.60394
▁istiyorum	-7.6065
▁üç	-7.60676
▁gerçek	-7.61054
sa	-7.6145
▁olmak	-7.62106
▁nın	-7.62597
▁mı	-7.63057
▁Çok	-7.63349
ti	-7.63382
▁su	-7.64479
siniz	-7.64497
▁ortaya	-7.67316
▁olacak	-7.68051
tan	-7.68348
▁bize	-7.6851
▁a	-7.68726
▁oldukça	-7.69018
an	-7.69446
▁fakat	-7.69608
▁şeyi	-7.69864
▁Bunun	-7.7028
▁Peki	-7.70402
▁dünya	-7.70495
dı	-7.72453
▁oluyor	-7.72504
▁Her	-7.72675
▁yani	-7.72839
▁beni	-7.7287
▁S	-7.73268
▁birkaç	-7.73717
▁güzel	-7.74679
▁10	-7.74814
▁ın	-7.75107
▁Burada	-7.75145
▁onları	-7.75379
sine	-7.75493
▁Aslında	-7.75514
nız	-7.75844
▁kişi	-7.76007
▁Dünya	-7.76115
▁soru	-7.76146
▁Alkış	-7.76164
▁hareket	-7.76429
▁tekrar	-7.76448
me	-7.76944
▁anda	-7.77403
▁bunlar	-7.77763
▁uzun	-7.77966
▁etmek	-7.77968
▁boyunca	-7.7835
▁devam	-7.78641
▁Alkışlar	-7.79086
lardan	-7.80079
▁onun	-7.80268
▁bilgi	-7.80338
nda	-7.8096
▁olabilir	-7.80999
daki	-7.81033
miz	-7.81332
▁zor	-7.81496
▁kötü	-7.81569
lık	-7.81746
ydi	-7.81775
lerden	-7.82221
larına	-7.82849
du	-7.82885
niz	-7.83351
▁fark	-7.834
▁yüzde	-7.83679
▁olması	-7.84477
▁birçok	-7.84499
im	-7.85437
tir	-7.85644
▁e	-7.85815
lerine	-7.85916
ş	-7.85992
ten	-7.8651
▁milyon	-7.87071
sel	-7.8716
▁Anca	-7.87487
▁i	-7.87662
▁A	-7.87882
tır	-7.88199
▁Ne	-7.89184
▁Daha	-7.89283
▁onlar	-7.89408
mız	-7.89464
▁Evet	-7.89704
▁Siz	-7.89959
▁yol	-7.90247
o	-7.90319
▁geliyor	-7.91417
▁20	-7.9148
▁belki	-7.91967
▁karar	-7.9202
▁açık	-7.92306
sanız	-7.92317
▁orada	-7.92453
arak	-7.92578
mi	-7.92973
▁tamamen	-7.93143
▁arasında	-7.93346
▁birlikte	-7.93494
▁Biz	-7.944
▁yüksek	-7.9506
larının	-7.95204
lerle	-7.95614
ydı	-7.95854
▁dedi	-7.95889
se	-7.96061
▁hayal	-7.9618
▁tür	-7.96405
▁para	-7.96437
▁yerine	-7.97129
d	-7.97494
▁gereken	-7.97677
▁öyle	-7.98862
nı	-8.00036
▁harika	-8.00297
▁dünyanın	-8.00349
▁işte	-8.00437
▁buna	-8.0059
▁basit	-8.00699
▁gelen	-8.00812
mış	-8.01635
▁pek	-8.01646
▁şöyle	-8.01711
▁bugün	-8.01845
▁artık	-8.01975
▁üzerine	-8.02032
▁olur	-8.02155
dur	-8.02269
▁Bunlar	-8.02408
▁yardım	-8.02519
▁Afrika	-8.026
▁daki	-8.02892
sini	-8.03331
larla	-8.03998
lardı	-8.05324
ini	-8.05656
▁eden	-8.05703
▁hiçbir	-8.06424
lerde	-8.06632
tı	-8.06694
▁nin	-8.06785
▁Böylece	-8.07489
lu	-8.07537
▁Amerika	-8.0774
deki	-8.07824
▁çocuk	-8.09261
▁ederim	-8.09292
▁enerji	-8.09582
▁yakın	-8.10067
lerinin	-8.10101
▁vardır	-8.10904
ip	-8.11099
▁onların	-8.1134
larda	-8.11801
▁hızlı	-8.12008
erek	-8.12315
▁geldi	-8.1261
sını	-8.12841
un	-8.13501
▁kaç	-8.14366
sına	-8.14572
▁ediyor	-8.14658
▁ancak	-8.14778
▁Sade	-8.14899
▁konusunda	-8.1493
▁çoğu	-8.15308
▁işe	-8.15483
▁sosyal	-8.1568
▁sonunda	-8.16574
▁yeniden	-8.16808
▁Sonra	-8.16842
▁Tamam	-8.1709
▁yaklaşık	-8.17274
▁bizi	-8.17472
▁alan	-8.17711
▁teknoloji	-8.18132
▁ta	-8.18138
▁tane	-8.18397
▁nokta	-8.18501
▁yerde	-8.19309
▁Şu	-8.19415
▁hale	-8.19659
▁onlara	-8.19689
▁süre	-8.1975
▁bilim	-8.20183
▁zorunda	-8.2035
▁sizin	-8.20418
▁elde	-8.21042
▁sene	-8.21056
dim	-8.22215
▁E	-8.22253
▁ona	-8.22336
▁olmayan	-8.22685
larında	-8.22723
▁hem	-8.22731
▁dört	-8.22916
▁herhangi	-8.22943
▁ilginç	-8.23138
▁temel	-8.23285
▁fikir	-8.23331
▁hemen	-8.2361
▁Benim	-8.23715
▁kadın	-8.2392
▁kat	-8.24239
▁eski	-8.2461
f	-8.24702
▁durum	-8.24788
▁yaşam	-8.24822
▁özel	-8.25121
▁konu	-8.25312
▁şeyleri	-8.25328
▁ay	-8.25663
▁hikaye	-8.26033
▁altında	-8.26046
▁3	-8.26117
▁böylece	-8.26292
yu	-8.26373
▁çalışma	-8.26598
▁dan	-8.26719
▁insanları	-8.26836
▁göz	-8.27213
▁Onlar	-8.27367
▁Teşekkürler	-8.2797
▁durumda	-8.28047
▁hala	-8.28141
ci	-8.28427
ım	-8.28477
▁istediğim	-8.28597
lerinden	-8.2869
▁demek	-8.28704
▁milyar	-8.28751
sunuz	-8.28938
▁sorun	-8.2917
▁inanılmaz	-8.29222
▁bilgisayar	-8.29673
g	-8.30199
sınız	-8.3048
▁parça	-8.30603
▁dolar	-8.3061
sin	-8.31096
▁kontrol	-8.31396
▁adam	-8.31552
▁güçlü	-8.31826
▁den	-8.32483
▁örnek	-8.33277
▁dair	-8.33299
▁saat	-8.33325
ını	-8.33622
larından	-8.33951
▁etti	-8.3396
▁izin	-8.345
▁dünyada	-8.35169
▁yine	-8.35406
▁Ya	-8.35563
▁beyin	-8.35599
▁veri	-8.36333
▁genç	-8.36418
▁olma	-8.3646
▁başladı	-8.36552
inde	-8.36684
▁En	-8.36816
lerinde	-8.36889
▁şunu	-8.37025
▁hatta	-8.37027
▁un	-8.37273
▁Bugün	-8.37392
▁te	-8.37509
▁hafta	-8.37812
▁siz	-8.38076
▁birşey	-8.38486
▁gelir	-8.38488
▁Neden	-8.38549
ine	-8.38883
▁parçası	-8.39264
miş	-8.39611
▁bunları	-8.39651
▁G	-8.39836
▁eğitim	-8.40063
▁inşa	-8.40137
▁kimse	-8.40796
▁mümkün	-8.41386
mı	-8.41415
nde	-8.41419
▁benzer	-8.4217
▁30	-8.42407
▁bence	-8.43481
▁yalnız	-8.4349
▁herkes	-8.43893
▁ülke	-8.44011
▁kabul	-8.4409
▁B	-8.4452
▁kolay	-8.44663
▁beş	-8.44871
▁edin	-8.45245
▁İlk	-8.45541
▁insanlara	-8.45601
▁hava	-8.45698
▁çıkar	-8.45698
▁dedim	-8.45995
▁değildir	-8.46094
▁yolu	-8.46096
▁kez	-8.46127
ik	-8.46211
▁New	-8.46662
h	-8.46801
▁hepsi	-8.46849
▁yanlış	-8.46922
▁neredeyse	-8.46981
▁yapma	-8.47052
▁sürü	-8.47061
▁proje	-8.4713
▁tahmin	-8.47291
▁araba	-8.47432
▁çalışan	-8.47495
▁yapmaya	-8.48425
▁sizi	-8.48474
▁hayat	-8.48865
▁kız	-8.49366
▁özellikle	-8.49452
▁araya	-8.49849
▁2	-8.50064
▁mu	-8.5019
▁ye	-8.50816
▁yaptığı	-8.51022
▁çevre	-8.51287
▁C	-8.51381
▁güç	-8.51516
▁gerek	-8.51595
▁birisi	-8.51707
▁gösteriyor	-8.51913
ız	-8.51991
▁kısa	-8.52093
▁yere	-8.5221
▁Hindistan	-8.52336
▁gerekiyor	-8.52365
▁yüz	-8.52372
▁gördüğünüz	-8.52384
nden	-8.52567
▁değildi	-8.52605
▁olduğuna	-8.53193
▁neler	-8.53239
al	-8.53272
ri	-8.53514
▁doğal	-8.53551
▁genel	-8.53782
▁50	-8.53965
▁üzere	-8.5463
mizi	-8.54702
▁yapan	-8.55561
▁altı	-8.55664
▁gelecek	-8.55861
mak	-8.55966
▁cevap	-8.56837
▁verici	-8.56879
ıp	-8.57061
▁ses	-8.57114
▁düşünün	-8.57215
▁kullanarak	-8.57356
▁geçen	-8.57674
▁grup	-8.57769
▁bakın	-8.57873
▁dakika	-8.58492
▁şeyin	-8.58894
▁aile	-8.58902
▁Aynı	-8.59004
▁başladım	-8.59062
▁aşağı	-8.59115
liği	-8.59229
▁TED	-8.59386
acak	-8.59537
▁savaş	-8.5956
b	-8.59577
lığı	-8.5965
▁bundan	-8.59697
dik	-8.5982
▁ana	-8.59847
▁Tüm	-8.59971
seniz	-8.60338
▁arasındaki	-8.60639
▁yoktu	-8.60893
▁çeşit	-8.6111
nızı	-8.61114
mızı	-8.61119
▁sonraki	-8.61259
▁olmadığını	-8.61366
▁K	-8.61405
▁Son	-8.61681
cı	-8.61981
▁ifade	-8.62
▁bunların	-8.62017
sal	-8.62039
on	-8.6221
▁sağlık	-8.62577
▁ı	-8.62613
▁ihtiyacımız	-8.62822
▁araştırma	-8.62861
ına	-8.6309
▁bin	-8.63169
▁tedavi	-8.63187
ç	-8.63232
▁yapıyor	-8.63247
yız	-8.6331
▁gece	-8.63446
▁sistemi	-8.63562
sinin	-8.63609
▁rağmen	-8.63609
siz	-8.63676
mek	-8.63707
▁derece	-8.63951
▁biliyoruz	-8.63997
▁alıp	-8.64347
▁İnsanlar	-8.64427
▁Çin	-8.64442
▁değer	-8.64524
▁yılda	-8.64547
▁olsa	-8.64847
▁beraber	-8.64862
▁Belki	-8.64922
▁15	-8.64989
▁iletişim	-8.65236
▁100	-8.65311
▁dolayı	-8.65489
▁yapı	-8.6592
▁T	-8.66438
▁düşünüyorum	-8.66546
▁bağlı	-8.6662
▁görüyorsunuz	-8.66996
▁bak	-8.67118
▁kim	-8.67124
▁insanın	-8.67348
re	-8.67584
▁hasta	-8.67776
el	-8.67861
▁H	-8.67986
▁ikinci	-8.6805
▁erkek	-8.68085
▁konuşma	-8.68253
▁York	-8.6832
▁görebilirsiniz	-8.68785
▁Ban	-8.68863
▁ele	-8.69036
▁olduğumuz	-8.69486
▁teşekkür	-8.69618
dım	-8.69835
▁yardımcı	-8.70155
▁anlama	-8.70197
▁tasarım	-8.70332
▁etmeye	-8.70557
sın	-8.7061
nizi	-8.7062
▁içine	-8.70702
▁D	-8.70765
▁yaptığımız	-8.70959
▁ettim	-8.70959
▁muhtemelen	-8.71084
▁Ayrıca	-8.71228
▁görmek	-8.71314
▁olsun	-8.71386
▁sebep	-8.7139
▁yaptık	-8.71419
▁işi	-8.71556
▁nedir	-8.71613
▁bazen	-8.72017
▁karmaşık	-8.72135
ar	-8.72192
▁asla	-8.72224
▁olup	-8.72332
ir	-8.72511
▁düşündüm	-8.72752
▁etme	-8.72921
▁yaşayan	-8.7295
c	-8.73501
▁dışında	-8.73783
ça	-8.73801
▁küresel	-8.7414
sun	-8.74202
▁adı	-8.74283
▁kelime	-8.7433
▁başına	-8.74426
▁yılında	-8.74476
▁dünyayı	-8.74949
▁on	-8.74976
▁çocuklar	-8.75415
▁hep	-8.75902
▁sanat	-8.7595
â	-8.76028
▁kendini	-8.76089
▁I	-8.76314
▁hücre	-8.76348
▁ortak	-8.76394
larımız	-8.76405
▁al	-8.76505
▁bakış	-8.76634
nun	-8.76682
▁ışık	-8.76695
▁derin	-8.76701
▁yapılan	-8.77285
sak	-8.77691
▁ev	-8.77753
▁ekonomik	-8.77763
▁olmadığı	-8.77794
▁vermek	-8.77859
il	-8.77965
▁sürekli	-8.77966
▁söz	-8.78246
▁konuda	-8.78303
▁beri	-8.78303
▁Büyük	-8.78315
sek	-8.78355
sız	-8.78403
sinde	-8.78579
▁sistem	-8.78841
▁video	-8.79333
▁kesinlikle	-8.79434
su	-8.79466
▁binlerce	-8.79531
▁görüyoruz	-8.79669
▁almak	-8.79961
▁Yeni	-8.80159
▁el	-8.80232
▁gerektiğini	-8.8064
▁Avrupa	-8.80883
▁dolu	-8.81013
ecek	-8.81031
▁Bütün	-8.81339
▁çıktı	-8.81389
▁fikri	-8.81438
▁arada	-8.81507
▁geniş	-8.82019
luk	-8.82262
▁sebebi	-8.8245
▁5	-8.82576
▁defa	-8.8259
▁içerisinde	-8.82613
▁dikkat	-8.82679
▁bulunan	-8.82915
▁takip	-8.8294
▁L	-8.83125
.000	-8.83337
▁deniz	-8.83363
▁başarılı	-8.8367
es	-8.83804
▁güneş	-8.8402
▁Bizim	-8.84154
▁biliyor	-8.8422
or	-8.84304
▁Buna	-8.84387
▁Gerçekten	-8.84452
▁düşünce	-8.84458
▁yaşında	-8.84613
▁nedenle	-8.84723
▁haline	-8.84885
▁oyun	-8.85036
lama	-8.85083
▁dünyadaki	-8.85107
▁uygun	-8.85403
▁Teşekkür	-8.85519
▁hayatta	-8.85593
ba	-8.85666
▁Ma	-8.85682
▁yaptım	-8.85792
▁at	-8.85953
lerimiz	-8.86345
▁evet	-8.8641
▁gidip	-8.86451
▁ait	-8.86607
▁mükemmel	-8.86627
▁Hayır	-8.86646
tik	-8.86985
▁merak	-8.87078
▁mutlu	-8.871
▁deki	-8.87152
▁ileri	-8.87185
▁olurdu	-8.87516
▁hazır	-8.87552
▁problem	-8.87615
▁varsa	-8.87834
▁iç	-8.87929
▁ediyorum	-8.8802
▁hepimiz	-8.88188
▁başarı	-8.88272
▁İki	-8.88567
▁canlı	-8.88605
▁tabii	-8.88671
▁ölüm	-8.88835
▁adım	-8.88856
▁toplum	-8.88914
▁ihtiyaç	-8.89055
iyor	-8.89097
▁acı	-8.89154
▁sonuç	-8.89166
▁sayesinde	-8.892
▁yavaş	-8.89214
▁Diğer	-8.8949
▁DNA	-8.89566
▁sık	-8.89601
▁1	-8.89686
ır	-8.89726
▁4	-8.90207
maya	-8.90275
▁yemek	-8.90287
▁değişim	-8.90447
▁hangi	-8.90468
▁bina	-8.90516
▁geç	-8.90724
yım	-8.90856
▁kadınlar	-8.90921
▁yaptı	-8.90982
▁haber	-8.90992
▁baş	-8.91029
▁elektrik	-8.91068
▁doğa	-8.91148
▁başladık	-8.91335
us	-8.91483
▁gerekir	-8.91621
▁ayrıca	-8.91656
dum	-8.91791
▁40	-8.91814
▁anne	-8.91848
▁ön	-8.91901
▁şehir	-8.92056
▁zamanlar	-8.9215
▁veren	-8.92284
▁kısmı	-8.92343
yken	-8.92413
alım	-8.92483
▁ilişki	-8.92653
▁madde	-8.92792
inin	-8.9289
▁yıldır	-8.9289
ydu	-8.92942
▁sağ	-8.92966
S	-8.92991
va	-8.93061
▁resim	-8.9313
▁musunuz	-8.93241
▁olmadan	-8.93265
ıyor	-8.93287
▁müzik	-8.93531
▁düşük	-8.93532
▁fotoğraf	-8.93551
▁F	-8.93666
▁ABD	-8.93754
▁eder	-8.93822
▁şeye	-8.93887
▁muhteşem	-8.94142
▁ciddi	-8.94187
▁u	-8.94433
leriyle	-8.94698
▁biliyorum	-8.94796
▁nerede	-8.94815
▁sen	-8.94913
▁Kendi	-8.95034
▁olmalı	-8.95156
sinden	-8.95283
▁gerekli	-8.95337
▁söyledi	-8.95547
ra	-8.95608
lan	-8.95705
yim	-8.95761
▁yaptığım	-8.95901
▁film	-8.96
▁internet	-8.96129
man	-8.9615
▁anlamak	-8.96152
▁normal	-8.96174
▁ilgi	-8.96356
▁üst	-8.96621
▁kişisel	-8.9704
▁asıl	-8.97082
▁çıkan	-8.9713
▁200	-8.97185
sının	-8.97295
ün	-8.97412
▁yanı	-8.9815
▁aldı	-8.98154
▁bağlantı	-8.9831
91	-8.98319
▁gücü	-8.98497
▁olay	-8.98654
▁ister	-8.98683
inden	-8.98713
B	-8.98916
▁olacağını	-8.98954
dığı	-8.99014
▁sinir	-8.99044
▁göstermek	-8.99068
▁dahil	-8.99149
▁kendimi	-8.99172
▁model	-8.99613
▁okul	-8.99617
▁bilirsiniz	-8.99883
▁ara	-8.99951
çe	-9.00093
▁verdi	-9.00156
▁emin	-9.00168
▁beyaz	-9.00205
dığını	-9.0022
▁test	-9.0041
muş	-9.00433
2	-9.00613
▁çözüm	-9.00647
▁deney	-9.007
lü	-9.00808
▁yaz	-9.00909
▁ettik	-9.00946
▁birinin	-9.01047
▁yanında	-9.01118
▁makine	-9.01138
▁anlamın	-9.02009
▁yukarı	-9.0202
ında	-9.02061
▁6	-9.0217
▁etki	-9.02258
▁Müzik	-9.02269
▁metre	-9.02495
▁uzak	-9.02596
▁yı	-9.02668
▁oluşan	-9.02704
▁fiziksel	-9.02706
min	-9.02789
▁alanı	-9.02791
▁yan	-9.02847
▁mevcut	-9.02885
▁alma	-9.02945
▁veriyor	-9.03236
▁nun	-9.03278
D	-9.03361
▁öğrenme	-9.03396
▁herkesin	-9.03568
▁kitap	-9.03799
▁ek	-9.03955
meye	-9.04004
▁hayvan	-9.04005
▁oda	-9.04061
▁sıra	-9.04224
▁M	-9.04323
▁12	-9.0442
▁tepki	-9.04518
▁nedeni	-9.04574
▁buraya	-9.04613
▁zaten	-9.04625
▁Artık	-9.04627
▁yedi	-9.04719
▁El	-9.04737
▁dil	-9.04798
▁bulmak	-9.04809
▁kan	-9.05037
▁görünüyor	-9.05073
▁kendisi	-9.05186
▁Amerikan	-9.05299
▁U	-9.0539
imiz	-9.05484
▁Örneğin	-9.05495
▁sayı	-9.05632
▁sesi	-9.05684
▁görme	-9.05717
▁birini	-9.05728
▁kapı	-9.0576
▁olursa	-9.05923
▁mavi	-9.06156
▁çizgi	-9.06607
▁henüz	-9.06816
▁belli	-9.06847
▁düşünme	-9.06891
▁söylemek	-9.06946
▁ortalama	-9.07018
▁olmaya	-9.0709
▁yeterli	-9.07099
▁kalan	-9.0722
▁Başka	-9.0727
▁der	-9.07408
▁araç	-9.07423
▁aldım	-9.07494
▁San	-9.07639
bi	-9.07676
▁çocukların	-9.07825
▁devlet	-9.0785
▁olduğum	-9.07985
▁bakar	-9.08147
▁Onun	-9.08175
ch	-9.08272
▁gelip	-9.08394
▁bakalım	-9.08397
ur	-9.0849
▁şeylerden	-9.08499
93;	-9.08603
to	-9.08616
gi	-9.08807
▁ufak	-9.08847
▁sahibi	-9.09212
lo	-9.09294
▁çalışıyor	-9.0933
leme	-9.09482
▁60	-9.09703
▁Güney	-9.09967
▁yıllık	-9.10353
▁gördüm	-9.1036
▁Bazı	-9.10377
▁verdim	-9.10421
mda	-9.10491
▁resmi	-9.10493
▁orta	-9.10655
▁telefon	-9.1084
▁hastalık	-9.10864
▁yatırım	-9.11066
ktan	-9.11323
ması	-9.11336
is	-9.11382
9	-9.11512
▁Kuzey	-9.11578
▁kalp	-9.11648
▁edecek	-9.1171
▁Birleşi	-9.1177
▁derecede	-9.11796
▁korku	-9.11965
▁katı	-9.12049
▁tamam	-9.12068
▁biçimde	-9.12096
▁heyecan	-9.12153
▁tarafta	-9.1218
▁CA	-9.12428
▁Google	-9.12746
▁sanırım	-9.12757
▁kaynak	-9.12786
▁şirket	-9.12876
▁idi	-9.13056
▁tabi	-9.13181
▁halde	-9.13273
▁yerlerde	-9.13282
▁sayıda	-9.13391
▁dünyaya	-9.13451
▁Mars	-9.13531
▁ağ	-9.1368
▁zengin	-9.13808
lerdi	-9.13829
▁güven	-9.13887
▁ilaç	-9.13888
▁işin	-9.14086
▁buradaki	-9.14093
▁gittim	-9.14187
ro	-9.14328
▁diyor	-9.14468
▁mücadele	-9.14476
▁oldukları	-9.14512
abiliriz	-9.1457
▁yerel	-9.14718
▁medya	-9.1483
▁yeşil	-9.14884
▁aşırı	-9.14982
▁Bunları	-9.15039
▁dijital	-9.15124
▁Nasıl	-9.15125
▁lazım	-9.15242
▁gidiyor	-9.15248
abilir	-9.15332
▁destek	-9.15383
liğe	-9.15507
▁uzay	-9.15509
ge	-9.15571
▁ediyoruz	-9.15581
▁bazıları	-9.15712
▁olduklarını	-9.15723
▁yapıyoruz	-9.15751
▁azından	-9.15881
▁tanesi	-9.15883
▁şeylerin	-9.159
ebilir	-9.16127
tu	-9.16268
▁göster	-9.16324
▁ihtiyacı	-9.1637
▁Tanrı	-9.16565
▁alt	-9.16696
▁kafa	-9.16762
▁etkili	-9.16781
▁kullanma	-9.16803
▁arka	-9.16845
▁şekli	-9.16992
▁Al	-9.16998
▁hoş	-9.17152
unu	-9.17447
anırım	-9.17618
▁zamanlarda	-9.1768
▁sağlıyor	-9.17705
▁günde	-9.1773
▁kanser	-9.17752
lerimizi	-9.17783
▁istedim	-9.17785
▁kişinin	-9.17792
larımızı	-9.17848
▁saniye	-9.18057
▁takım	-9.18184
▁yaratmak	-9.18263
▁hayır	-9.18302
▁Hatta	-9.18305
▁milyonlarca	-9.18327
▁olacaktır	-9.18512
▁18	-9.18607
▁gösteren	-9.18644
yan	-9.18669
mizin	-9.18955
▁şaşırtıcı	-9.19051
▁görüntü	-9.1911
▁üstünde	-9.19117
▁büyüme	-9.19486
▁biliyorsunuz	-9.19684
▁yaşlı	-9.19708
ha	-9.19786
▁kendine	-9.19875
▁Herkes	-9.19981
▁11	-9.1999
sında	-9.20025
▁konusu	-9.20044
▁ekonomi	-9.20142
,000	-9.20209
▁merkezi	-9.20241
▁anlamı	-9.20294
▁çift	-9.20319
▁25	-9.20334
▁Böyle	-9.20423
▁sağlayan	-9.20449
▁noktada	-9.2054
▁çalışmak	-9.2094
▁seçim	-9.20997
▁yerinde	-9.21031
▁Birkaç	-9.21082
▁adında	-9.21149
▁işler	-9.21166
larıyla	-9.21253
imi	-9.2128
▁Mesel	-9.2132
▁açısından	-9.21362
▁sahne	-9.21377
▁yüzünden	-9.21431
▁yapar	-9.21921
▁durumu	-9.21965
▁Su	-9.22004
dür	-9.22283
▁bununla	-9.22447
sam	-9.23054
▁J	-9.23056
▁görsel	-9.23155
▁teşekkürler	-9.23253
dık	-9.2334
▁ilham	-9.234
▁iklim	-9.2345
▁kırmızı	-9.23668
▁şarkı	-9.23839
▁örneğin	-9.23879
▁R	-9.23902
▁mesela	-9.23924
▁başında	-9.24003
▁insanlarla	-9.24092
▁bölge	-9.24219
▁De	-9.24421
▁meydana	-9.24482
▁ayrı	-9.24498
yiz	-9.24849
▁plan	-9.24979
▁çeşitli	-9.25027
▁zamanı	-9.25131
▁altın	-9.25173
▁koruma	-9.25263
cu	-9.25299
▁sanki	-9.25313
▁hâl	-9.25368
▁sayısı	-9.25447
▁sonucu	-9.25826
▁ortada	-9.25836
▁fakir	-9.25878
▁tercih	-9.26049
▁nde	-9.26083
▁alıyor	-9.26308
T	-9.2664
▁değilim	-9.26798
▁üniversite	-9.26811
diğini	-9.26824
▁çıkıyor	-9.26864
▁istiyoruz	-9.26914
▁kamera	-9.27052
mesi	-9.27086
▁anlamda	-9.27188
▁80	-9.27364
▁göstereceğim	-9.27391
▁yoksa	-9.27508
▁olmuş	-9.27625
zi	-9.27692
▁alır	-9.27767
▁Onu	-9.27824
▁gizli	-9.27837
diği	-9.27951
lığın	-9.27959
▁inanıyorum	-9.27963
▁yaratıcı	-9.27989
▁İyi	-9.28024
ıpkı	-9.28126
▁içindeki	-9.28135
▁yazı	-9.28259
▁tip	-9.28341
▁oray	-9.28678
ının	-9.28783
be	-9.28992
▁Hiç	-9.29041
▁7	-9.29044
▁Ha	-9.2919
▁yap	-9.29274
bo	-9.29424
C	-9.29474
vi	-9.29706
▁satın	-9.2991
lanmış	-9.2999
▁Orada	-9.30036
▁icin	-9.30049
▁gerçekte	-9.30197
▁yapabiliriz	-9.30246
▁garip	-9.30439
▁İkinci	-9.30523
▁ucuz	-9.30525
▁mü	-9.30538
▁bilimsel	-9.30554
▁söylüyor	-9.30557
▁konuşmak	-9.30578
mın	-9.3069
▁robot	-9.30696
▁temsil	-9.30819
▁petrol	-9.30838
▁üzerinden	-9.30954
▁umut	-9.31003
▁önceki	-9.31104
son	-9.3119
▁s	-9.3125
▁olsaydı	-9.31312
ing	-9.31336
▁kendimizi	-9.31676
▁uygulama	-9.31697
▁etkisi	-9.31743
▁ürün	-9.31746
layan	-9.31793
00	-9.31799
▁olmasını	-9.31836
▁yüzlerce	-9.31852
▁yıllar	-9.32086
abilirsiniz	-9.32123
▁demokrasi	-9.32136
▁Dolayısıyla	-9.32139
mıştı	-9.322
▁hedef	-9.32236
▁önünde	-9.32248
▁Tabii	-9.32328
▁yaptıkları	-9.32374
▁gelecekte	-9.32412
▁günlük	-9.32471
▁gider	-9.32627
ğ	-9.3264
▁sağlıklı	-9.32667
6	-9.32699
▁ince	-9.32703
▁korkunç	-9.32709
▁gerektiği	-9.32717
▁bakarsa	-9.32791
▁ders	-9.32811
▁cep	-9.33009
▁kullan	-9.33119
▁dizi	-9.33124
▁dışı	-9.33127
çi	-9.33429
elim	-9.33449
▁eve	-9.33494
▁olduğunda	-9.33567
▁zarar	-9.33731
▁eş	-9.33734
▁suç	-9.33756
▁kalma	-9.33781
▁seviyorum	-9.3389
▁İş	-9.34057
▁kullanmak	-9.34146
▁Biraz	-9.34166
▁bilmiyorum	-9.34187
▁işaret	-9.34262
▁yapılmış	-9.34381
▁elbette	-9.34445
▁koy	-9.34459
▁gördüğümüz	-9.34497
▁türlü	-9.34497
▁et	-9.34544
▁esas	-9.34881
▁risk	-9.34897
▁nerey	-9.34915
▁getirmek	-9.3496
ılmış	-9.34963
▁dışarı	-9.35152
▁anlat	-9.35152
▁sorunu	-9.35184
tim	-9.35301
5	-9.35303
▁olanlar	-9.35346
▁başlıyor	-9.35517
▁sınıf	-9.35524
▁Video	-9.3562
▁açıdan	-9.35676
▁akıl	-9.35705
▁güvenli	-9.35736
▁N	-9.35741
ku	-9.35798
▁olduğundan	-9.35874
▁giden	-9.35885
▁aşı	-9.35892
▁bas	-9.35897
▁sayfa	-9.3596
ici	-9.35969
▁kaynağı	-9.35995
ğı	-9.36049
▁üzerindeki	-9.36102
▁yoktur	-9.3615
yse	-9.36219
▁edilen	-9.36255
▁etrafında	-9.36264
▁sabah	-9.36296
▁ülkeler	-9.36301
▁Gerçek	-9.36526
▁miyiz	-9.366
▁mesaj	-9.36726
ru	-9.36779
tur	-9.36806
▁kendilerini	-9.36957
▁Ba	-9.37154
▁İnsan	-9.37201
K	-9.37227
▁kişiler	-9.37318
v	-9.37373
▁fikirler	-9.37391
▁buldum	-9.37405
▁dış	-9.37431
▁edilmiş	-9.37638
▁Sen	-9.37642
▁pazar	-9.37746
▁8	-9.38009
▁geleneksel	-9.38025
▁hücreleri	-9.38027
▁gördük	-9.3805
▁gitmek	-9.38066
▁baskı	-9.38115
acağız	-9.38206
▁bunlardan	-9.3858
▁piyasa	-9.38619
ysa	-9.38682
▁erkekler	-9.3871
▁önemlisi	-9.38835
▁hata	-9.38939
▁kara	-9.38944
▁üçüncü	-9.3899
▁kere	-9.39077
ed	-9.39096
▁bilgiyi	-9.39139
st	-9.39222
▁icat	-9.39235
▁bitki	-9.39617
dü	-9.39675
▁Onları	-9.39724
▁düşünmeye	-9.39769
▁verme	-9.3978
▁genetik	-9.39848
▁yaş	-9.39879
▁geldiğini	-9.39945
▁hayatın	-9.40093
bu	-9.40127
▁oldum	-9.4017
▁değişik	-9.40257
▁değiştirmek	-9.40281
sıyla	-9.40336
▁insanı	-9.40448
nu	-9.40458
A	-9.40492
ımız	-9.40493
▁sırasında	-9.40536
▁Mo	-9.40628
mızın	-9.40656
▁yapıyorlar	-9.40803
▁hastalığı	-9.40988
▁yapmayı	-9.41009
▁yi	-9.41075
▁Batı	-9.4115
ko	-9.412
▁arkadaşım	-9.41228
▁anlamaya	-9.41427
▁evrim	-9.41443
▁genellik	-9.41547
▁ettiği	-9.41556
▁temiz	-9.41557
▁fazlası	-9.41619
▁yiyecek	-9.41648
liğin	-9.41698
▁P	-9.41709
▁Birçok	-9.41717
▁deneyim	-9.41772
larımızın	-9.4189
▁öğrenci	-9.41897
▁beynin	-9.41927
▁yoğun	-9.42111
▁program	-9.42156
▁gelişme	-9.42162
▁teşvik	-9.4234
▁Ç	-9.42512
▁numara	-9.42528
▁balık	-9.42551
▁aracı	-9.4256
▁bizler	-9.42615
▁Pekala	-9.42657
▁Beni	-9.42681
▁yaparken	-9.42733
▁Burası	-9.42773
▁sonsuz	-9.4285
▁belirli	-9.42916
▁Orta	-9.42951
▁verdik	-9.4296
▁olağanüstü	-9.42975
▁senin	-9.43102
▁İnsanların	-9.43367
za	-9.43369
▁halinde	-9.434
▁çalışıyoruz	-9.43406
ga	-9.43439
▁70	-9.4346
1	-9.43568
▁yapacak	-9.43653
▁Tam	-9.43663
▁politik	-9.43786
ve	-9.43915
▁bulduk	-9.43945
▁kültür	-9.44034
▁fırsat	-9.44121
▁alakalı	-9.44191
▁Me	-9.44215
▁modern	-9.4425
▁kesin	-9.44257
▁amacı	-9.44259
▁ikna	-9.44261
▁Geçen	-9.44266
▁herşey	-9.44294
▁yaparak	-9.443
▁ayak	-9.44316
▁deneme	-9.44549
▁gıda	-9.44577
adlı	-9.44653
▁mil	-9.44732
mıza	-9.44743
▁sahibiz	-9.44747
▁Tek	-9.44797
▁hayatı	-9.44879
ğa	-9.45167
▁dahi	-9.45191
▁9	-9.45274
▁verir	-9.45313
▁budur	-9.45347
▁sağlamak	-9.45428
lerdir	-9.45511
▁sıcak	-9.45628
▁kadınların	-9.45702
▁yarısı	-9.45748
▁çocukları	-9.45769
▁erken	-9.45927
▁geriye	-9.46008
▁yeterin	-9.46045
▁sorular	-9.46047
▁İnternet	-9.46053
▁Ta	-9.46081
▁anlam	-9.46157
▁harita	-9.46211
▁masa	-9.46227
▁başlar	-9.46335
▁k	-9.46389
▁sekiz	-9.46536
▁çekici	-9.46541
ley	-9.46687
▁din	-9.4671
▁hizmet	-9.46808
▁görev	-9.46883
▁yasa	-9.46924
▁şekil	-9.47056
▁yapabilir	-9.47085
▁şirketler	-9.47148
▁verin	-9.4716
lardır	-9.47202
▁çalışıyorum	-9.4728
▁sırada	-9.47309
▁yarı	-9.47319
H	-9.47344
▁siyah	-9.4735
▁akıllı	-9.47535
▁başta	-9.47552
▁aldık	-9.47579
▁oranı	-9.4766
▁ediyorlar	-9.47741
▁90	-9.4786
▁yağmur	-9.47862
sem	-9.47873
▁şiddet	-9.47886
▁sonuçlar	-9.48002
▁rol	-9.48045
▁ortasında	-9.48145
▁Demek	-9.48218
▁değiştir	-9.48254
▁gezegen	-9.48257
▁demektir	-9.48338
▁inan	-9.4834
N	-9.48378
▁olmasına	-9.48493
▁karbon	-9.48515
▁sonrasında	-9.48545
▁kendime	-9.48563
eyim	-9.48698
as	-9.48788
san	-9.48797
yor	-9.48828
▁uç	-9.48937
▁kök	-9.48964
▁aç	-9.4906
▁ziyaret	-9.49095
3	-9.49218
▁bebek	-9.49249
mde	-9.49449
çı	-9.49471
▁yaşıyor	-9.49494
duk	-9.49505
▁kutu	-9.49508
▁davet	-9.49556
ebiliriz	-9.49717
▁nefes	-9.49885
▁Öyle	-9.49894
▁hakkındaki	-9.50054
▁ikisi	-9.50073
▁karanlık	-9.50154
ton	-9.50304
▁la	-9.50317
dığımız	-9.50319
▁istediğimiz	-9.50343
4	-9.50462
▁mal	-9.50558
▁nesil	-9.5056
▁ilerleme	-9.50809
▁çalışmaya	-9.50922
▁boş	-9.50935
▁süreç	-9.51042
▁programı	-9.51266
▁Hepimiz	-9.51274
▁boyutlu	-9.51302
kten	-9.51345
lığ	-9.51377
▁süreci	-9.51385
▁kurma	-9.51443
▁ten	-9.5153
▁adına	-9.51579
ran	-9.51649
▁Sa	-9.51655
▁adını	-9.51681
cık	-9.51795
8	-9.5187
7	-9.51972
▁hayvanlar	-9.52158
malıyız	-9.52179
mu	-9.52187
▁yöntem	-9.52245
birine	-9.52265
▁yaygın	-9.52297
der	-9.52353
raya	-9.52374
▁geldiği	-9.52419
▁ısı	-9.52591
▁sıfır	-9.52648
▁ışığı	-9.52671
▁sol	-9.52685
▁olduğumu	-9.52686
▁miktarda	-9.52729
▁kar	-9.52743
▁algı	-9.52795
▁yana	-9.52844
▁ağır	-9.52869
▁gaye	-9.52883
▁zeki	-9.52888
▁hayatını	-9.52894
▁Üç	-9.53007
landı	-9.53115
▁vücut	-9.53147
▁yapmamız	-9.53208
▁tehlikeli	-9.5328
P	-9.53337
▁Doğu	-9.53367
▁devre	-9.53438
▁noktası	-9.53617
▁seyahat	-9.53704
▁çaba	-9.5378
▁çapında	-9.53781
▁ülkede	-9.53809
▁çalıştığım	-9.53839
▁onunla	-9.53961
▁süper	-9.53992
▁makale	-9.54103
▁kal	-9.54303
▁güvenlik	-9.54351
▁Buradaki	-9.54461
▁hesap	-9.54644
▁yaşındaki	-9.54723
▁olmayacak	-9.54741
ıyla	-9.54877
▁anlatmak	-9.54906
▁babam	-9.54926
▁si	-9.55052
▁mesele	-9.55076
▁bağ	-9.5515
▁pahalı	-9.55167
▁tartışma	-9.552
mize	-9.55434
▁akşam	-9.5549
▁Bazen	-9.5549
▁Öyleyse	-9.55499
lanan	-9.55541
▁teori	-9.55576
▁telefonu	-9.55599
ebilirsiniz	-9.55602
▁oy	-9.55622
iniz	-9.55683
▁ederek	-9.55857
▁getiriyor	-9.5592
ayım	-9.56185
▁birine	-9.56421
▁Sonuç	-9.5653
▁edici	-9.56577
▁ton	-9.56592
▁yeri	-9.56687
▁tecrübe	-9.56713
▁hücreler	-9.56792
iyorum	-9.56843
▁konuş	-9.56858
▁muazzam	-9.56943
▁okula	-9.56975
gu	-9.57068
ö	-9.57074
▁bulma	-9.57124
siyle	-9.57142
lük	-9.57244
▁16	-9.57305
▁kenar	-9.57373
▁öğrendim	-9.57451
▁anı	-9.57507
▁ardından	-9.57531
▁gerekiyordu	-9.57639
▁tarz	-9.57653
▁alın	-9.57675
▁duygu	-9.57711
▁isteyen	-9.57717
▁sağlayacak	-9.5774
▁teknik	-9.57751
▁sanal	-9.57764
rken	-9.57779
▁almaya	-9.57816
▁sana	-9.57861
▁okuma	-9.5788
▁Bilim	-9.57886
abilecek	-9.57886
▁gitti	-9.57904
ör	-9.58009
▁getirdi	-9.58018
ze	-9.58059
▁Yine	-9.58062
▁gir	-9.58173
▁Çocuk	-9.58306
M	-9.58356
▁işbirliği	-9.58416
▁yapmış	-9.58421
▁dans	-9.58449
▁Sizin	-9.58484
likle	-9.58495
▁tarihi	-9.58631
ndaki	-9.59065
▁rahat	-9.59076
▁buz	-9.59106
▁İ	-9.59133
▁çoğunu	-9.59188
▁olmayı	-9.59209
ul	-9.59254
▁alanda	-9.59277
▁edebilir	-9.59414
▁tehdit	-9.59539
▁biyolojik	-9.59551
▁dur	-9.59553
lanma	-9.59627
▁can	-9.59637
ize	-9.59663
▁olmaları	-9.5967
▁çalış	-9.59738
▁görüş	-9.59775
▁annem	-9.59803
▁cok	-9.59836
▁ateş	-9.59891
▁Va	-9.59897
▁sonu	-9.59945
▁köpek	-9.5995
▁Çoğu	-9.59979
iyoruz	-9.5998
w	-9.60012
▁sağladı	-9.6007
▁olduğumuzu	-9.60131
▁istiyor	-9.60138
▁bi	-9.60154
▁silah	-9.60158
▁hızla	-9.6019
▁edildi	-9.60232
▁yabancı	-9.60257
▁Güneş	-9.60289
▁benziyor	-9.60453
▁tarih	-9.60573
hi	-9.60613
▁müthiş	-9.60667
▁neyse	-9.60749
▁benzeri	-9.60777
▁kazan	-9.60954
▁Chris	-9.61047
▁İngiltere	-9.61047
miyor	-9.61084
▁Ona	-9.61105
▁birşeyler	-9.61272
▁kap	-9.61283
▁halk	-9.61299
▁ettiler	-9.61337
▁görürsünüz	-9.6143
▁duruyor	-9.61636
▁olmaz	-9.61645
▁öğrenmek	-9.61676
▁burası	-9.6168
muz	-9.61711
▁getir	-9.61762
pe	-9.61892
▁hepimizin	-9.61932
▁düşünmek	-9.61936
▁söylediği	-9.62027
▁görmeye	-9.62076
▁fare	-9.62123
mayı	-9.62154
▁Ev	-9.622
▁14	-9.62307
▁verilen	-9.62407
▁toprak	-9.62417
▁eğlenceli	-9.6251
▁üretim	-9.62512
▁sefer	-9.62553
▁zayıf	-9.62583
▁içeri	-9.62593
▁kare	-9.62623
▁Devletler	-9.62729
▁onlarla	-9.62845
mişti	-9.6288
masını	-9.62897
▁buçuk	-9.62973
▁yaklaşım	-9.63091
▁burda	-9.63129
▁Küçük	-9.63373
ol	-9.6339
▁Dr	-9.63532
ği	-9.63576
▁kilo	-9.63589
▁Hem	-9.636
▁gücünü	-9.63791
▁sonuçları	-9.63806
leşmiş	-9.6384
▁Ra	-9.63863
▁problemi	-9.63935
▁W	-9.63955
▁yazılım	-9.64009
▁sordu	-9.6404
▁tuhaf	-9.64142
▁nefret	-9.64154
▁göreceksiniz	-9.64157
▁benimle	-9.64192
▁kod	-9.64307
▁Do	-9.64358
▁gel	-9.64387
▁tan	-9.64445
▁teknolojinin	-9.64505
▁okyanus	-9.64562
▁endişe	-9.64594
▁sevgi	-9.64724
▁yada	-9.64816
▁ünlü	-9.64943
▁tepe	-9.64957
diğimiz	-9.64964
▁görünen	-9.65007
▁modeli	-9.65016
eceğiz	-9.65075
▁olmamız	-9.6519
▁araçlar	-9.65215
▁arazi	-9.65228
▁soğuk	-9.65244
▁sey	-9.65287
▁saygı	-9.65306
▁dediler	-9.65325
▁sordum	-9.65344
ünü	-9.65375
▁arama	-9.65413
os	-9.65536
▁bildiğimiz	-9.65545
▁günü	-9.65596
diniz	-9.65686
▁hikâye	-9.65691
▁tıp	-9.65721
▁The	-9.65742
▁kullanılan	-9.65771
▁parti	-9.65785
G	-9.65795
▁arası	-9.65804
▁İngilizce	-9.65826
yo	-9.65912
▁çalıştım	-9.65928
▁kullanıyor	-9.6608
nca	-9.66107
unun	-9.66364
▁renk	-9.66493
▁yaşama	-9.66575
▁başa	-9.66586
▁eşit	-9.66603
po	-9.66681
▁alanlar	-9.66684
▁buydu	-9.667
▁gen	-9.66786
▁malzeme	-9.66915
▁biyoloji	-9.66916
▁Elbette	-9.66931
▁Tabi	-9.66954
▁olduğunuz	-9.6702
▁Re	-9.67023
▁Se	-9.67167
▁suyu	-9.6725
▁duygusal	-9.67356
▁sıradan	-9.6739
▁bulunuyor	-9.67446
▁tut	-9.6748
ımı	-9.67544
▁Adam	-9.67549
▁f	-9.67569
▁24	-9.67624
▁yara	-9.67643
▁mikro	-9.67717
▁Şöyle	-9.67743
▁ha	-9.67772
▁top	-9.67795
▁geleceği	-9.67806
iş	-9.67822
go	-9.67951
▁buldu	-9.67973
lenmiş	-9.68015
ıldı	-9.68045
mızda	-9.68058
cak	-9.68062
▁yıldız	-9.68088
ilmiş	-9.6812
▁13	-9.68131
▁HIV	-9.68151
▁alet	-9.68217
▁yüzyıl	-9.68237
▁dönü	-9.68303
▁çocuğun	-9.68439
▁sizinle	-9.68479
▁Ş	-9.68504
▁Yüz	-9.6854
▁Harika	-9.68562
▁ettiğimiz	-9.68566
ıcı	-9.68617
▁yapabilirsiniz	-9.68641
fi	-9.68657
diğim	-9.68671
▁doktor	-9.68716
▁rüzgar	-9.68856
layıp	-9.68869
▁mimari	-9.68899
▁cihaz	-9.68937
sından	-9.68958
▁tarım	-9.68961
▁plastik	-9.68972
▁geçerli	-9.68998
dikleri	-9.69028
L	-9.69094
meyi	-9.69154
▁farkında	-9.69246
▁çalışır	-9.69257
▁ölü	-9.69284
▁örneği	-9.69364
▁hafif	-9.69385
▁bulunduğu	-9.69418
▁Asya	-9.69473
▁gelişmiş	-9.69525
▁di	-9.69592
no	-9.69635
▁üstüne	-9.69671
▁17	-9.69724
▁bil	-9.69729
▁kilometre	-9.69801
▁duyu	-9.69877
▁baba	-9.69957
▁virüs	-9.6998
▁liste	-9.70072
▁balığı	-9.70105
acağını	-9.70142
▁sürdürülebilir	-9.70218
▁zorundayız	-9.70298
▁olduk	-9.70306
▁rahatsız	-9.70382
▁bırak	-9.7043
▁çocuğu	-9.70492
▁ver	-9.70542
▁kağıt	-9.70699
▁hak	-9.70772
▁değerli	-9.70821
kar	-9.70841
▁zeka	-9.70844
▁edip	-9.71057
▁giderek	-9.71072
larca	-9.71092
▁çek	-9.71105
▁şehrin	-9.71146
▁Hadi	-9.71167
▁ağaç	-9.71236
▁yapıyorum	-9.71243
▁li	-9.71274
▁hal	-9.71402
▁olanı	-9.71557
▁yaratma	-9.71684
▁evrenin	-9.71713
▁Kim	-9.71723
▁Di	-9.71738
▁yaptığını	-9.71769
co	-9.71795
▁seviye	-9.71821
▁sesleri	-9.71896
▁kamu	-9.71907
▁bisiklet	-9.7191
ndeki	-9.71926
▁miktar	-9.71971
▁önemlidir	-9.71977
ey	-9.72018
▁gerçeği	-9.72023
▁He	-9.72223
▁şeyden	-9.72238
▁sevdiğim	-9.72294
acağım	-9.72396
▁adamı	-9.72589
▁cevabı	-9.72591
▁kısmını	-9.7262
▁davranış	-9.72796
▁fotoğrafı	-9.72868
▁oyunu	-9.72897
ck	-9.73013
▁Doğru	-9.73079
eceğini	-9.73106
ger	-9.73118
▁km	-9.7312
▁engel	-9.73124
▁cam	-9.73161
▁Ko	-9.73198
▁kaya	-9.73361
▁geldiğinde	-9.73395
▁yapıldı	-9.73409
▁hükümet	-9.73455
▁verdiği	-9.7353
▁imkansız	-9.73554
▁türü	-9.73575
▁sabit	-9.73615
▁Afganistan	-9.73615
▁değiliz	-9.73706
▁amaç	-9.73744
▁düşünüyor	-9.73756
▁bakmak	-9.73758
ebilecek	-9.73802
▁ülkelerde	-9.73817
▁etkileşim	-9.73929
▁geçti	-9.74011
▁olmadı	-9.7402
▁uluslararası	-9.74048
▁öğren	-9.74082
▁olun	-9.74101
▁bağımsız	-9.74242
▁oluşturmak	-9.74252
▁evde	-9.74257
mo	-9.74321
▁ila	-9.74342
▁gaz	-9.74345
▁verimli	-9.74348
I	-9.74357
▁görüyor	-9.74376
▁çıkı	-9.74418
nize	-9.74477
▁Ki	-9.7448
▁Amerikalı	-9.74679
▁bilmek	-9.7477
▁değiller	-9.74843
▁sorunları	-9.74892
▁politika	-9.74912
ür	-9.75095
▁düz	-9.75269
▁Bize	-9.7527
▁yapay	-9.75333
▁önümüzde	-9.75359
▁paylaşmak	-9.75378
▁parmak	-9.75421
▁iddia	-9.75433
nün	-9.75437
▁dağ	-9.75466
▁geçmiş	-9.7551
imizin	-9.75577
▁tanı	-9.75605
▁sağlar	-9.75652
▁V	-9.75663
▁hepsini	-9.75679
▁Sonun	-9.75681
▁na	-9.75728
▁nevi	-9.75736
▁şirketi	-9.75818
▁olmuştu	-9.75829
▁hali	-9.75916
nizin	-9.75954
▁Gördüğünüz	-9.7624
▁kimyasal	-9.76263
▁Eski	-9.76289
yen	-9.76315
▁mantıklı	-9.76322
▁çoğunlukla	-9.76538
▁Man	-9.76542
▁bilinen	-9.76729
▁strateji	-9.76851
▁şeklinde	-9.76855
lıyız	-9.76858
ay	-9.77047
▁korumak	-9.77082
▁adamın	-9.77226
lanıyor	-9.77228
▁değiştirme	-9.77265
F	-9.77277
▁devrim	-9.77317
▁park	-9.77352
▁olabilecek	-9.77369
▁kaldır	-9.77484
▁hayatımı	-9.77486
▁ol	-9.77519
nıza	-9.77523
▁parçaları	-9.77525
▁verileri	-9.77564
▁gösterdi	-9.77574
▁hatırlıyorum	-9.77601
yorum	-9.77603
▁şeydir	-9.77703
▁geçme	-9.77772
taki	-9.77807
▁ölçüde	-9.77898
▁İngiliz	-9.77918
▁yayın	-9.77994
▁spor	-9.78061
▁neyin	-9.78095
▁açısı	-9.78103
▁Hiçbir	-9.78105
ış	-9.78116
▁toplumun	-9.78175
▁ötesinde	-9.78218
▁bilme	-9.78226
▁fazlasını	-9.78248
▁açıklama	-9.78331
▁ada	-9.78358
▁yola	-9.78485
▁sizlere	-9.78674
▁gitme	-9.78687
▁yerler	-9.78694
▁yılı	-9.78768
▁alanında	-9.78796
▁yüzyılda	-9.78891
▁John	-9.78926
▁Londra	-9.78937
▁kapalı	-9.79018
▁gerekirse	-9.79022
▁yönetim	-9.79048
▁işlem	-9.79048
▁sınır	-9.79057
▁tarafı	-9.79073
▁dediği	-9.79142
▁alacak	-9.79147
▁boya	-9.79272
▁denge	-9.79297
▁kısım	-9.79375
▁duyma	-9.79391
▁şeker	-9.79394
▁cinsiyet	-9.79403
▁yılın	-9.79455
▁olabileceğini	-9.79488
▁bölümü	-9.795
▁cinsel	-9.79682
▁sorumlu	-9.79702
▁doku	-9.79779
▁sanatçı	-9.79814
▁rakam	-9.79822
▁tespit	-9.79852
▁parlak	-9.79853
▁değişimi	-9.79896
▁kural	-9.7991
▁saldırı	-9.79935
▁bölüm	-9.79959
▁diyorum	-9.79969
▁arkadaş	-9.79971
▁fikirleri	-9.80002
▁molekül	-9.80066
▁La	-9.80098
▁dediğimiz	-9.80116
inizi	-9.80234
▁cümle	-9.80313
▁web	-9.80314
▁verecek	-9.80342
▁yu	-9.80357
▁edebilirsiniz	-9.80374
▁bakteri	-9.80404
▁gittik	-9.80405
▁tasarruf	-9.80504
▁Ka	-9.80528
▁Hepsi	-9.8059
▁çalıştığımız	-9.80597
▁analiz	-9.80624
▁önem	-9.8069
▁matematik	-9.80781
▁Davi	-9.80782
▁kanseri	-9.80783
▁suyun	-9.80788
▁siyasi	-9.80797
▁Da	-9.80924
ste	-9.80944
▁başarısız	-9.80985
▁aktif	-9.81002
▁kaldı	-9.81065
diler	-9.8111
▁evren	-9.81208
▁kitabı	-9.81244
▁Bilirsiniz	-9.81247
ver	-9.81261
▁nükleer	-9.81279
▁yolculuk	-9.81327
▁orman	-9.81336
▁dikkatli	-9.81355
▁çıkarmak	-9.81454
kçe	-9.81481
▁şans	-9.81489
▁ayı	-9.81503
▁geçiyor	-9.81547
lerimizin	-9.81599
▁seni	-9.81606
▁nda	-9.81609
ilen	-9.81856
met	-9.81863
▁insanlardan	-9.81919
mektedir	-9.81921
▁hakkı	-9.82041
▁Onların	-9.82086
▁olabilirsiniz	-9.82176
▁önüne	-9.82179
▁mutluluk	-9.82217
▁düşündük	-9.82251
fa	-9.82253
eceğim	-9.82268
▁Bo	-9.82297
▁öldü	-9.82374
▁gelmiş	-9.82387
▁herşeyi	-9.82486
▁Birincisi	-9.82537
▁hayata	-9.82625
▁saye	-9.82638
▁farkın	-9.82643
▁Güzel	-9.82653
▁gelişmekte	-9.82666
▁Bak	-9.82818
▁nüfus	-9.82828
mıştım	-9.82859
▁arkasında	-9.82937
▁epey	-9.83124
▁koyu	-9.83193
meliyiz	-9.83221
▁birbirin	-9.83236
▁doğum	-9.8326
bir	-9.83285
ah	-9.83324
▁500	-9.83364
▁gerçeklik	-9.8345
▁başladılar	-9.83463
▁işleri	-9.8348
▁halka	-9.83501
▁ün	-9.83512
▁pa	-9.8352
▁kuru	-9.83526
ıl	-9.8354
▁toplam	-9.83619
▁kas	-9.83643
▁olacağı	-9.83704
▁sessiz	-9.83735
▁teknolojiyi	-9.83819
▁yapacağı	-9.83848
▁değiştirebilir	-9.83848
▁ödeme	-9.83864
▁değiştirdi	-9.83895
▁gönder	-9.83903
▁yaptılar	-9.8398
▁çiz	-9.83997
▁yetiştir	-9.84012
▁ka	-9.84061
▁lütfen	-9.84079
ydim	-9.84113
▁radyo	-9.84133
▁isterim	-9.84173
lıyor	-9.8418
▁kullanıyoruz	-9.8418
▁televizyon	-9.84225
▁bakma	-9.84237
▁karşısında	-9.84259
▁standart	-9.84369
dy	-9.84399
▁elimizde	-9.84433
▁polis	-9.84542
▁çöp	-9.84585
▁gelme	-9.84612
lüğü	-9.84638
▁nereden	-9.84734
▁kol	-9.84784
▁gözlem	-9.8481
▁olmaktan	-9.84839
▁dava	-9.8484
▁paylaş	-9.84855
iyle	-9.84866
▁öğretmen	-9.84881
▁sergi	-9.85003
▁Teknoloji	-9.85042
maktadır	-9.85043
▁site	-9.85163
▁hesaplama	-9.85224
leşme	-9.85262
▁Bazıları	-9.85478
▁kullandığımız	-9.85503
▁dışarıda	-9.85536
th	-9.85553
ebiliyor	-9.85557
▁motor	-9.8563
▁geçiş	-9.85631
▁hikayeler	-9.85651
▁dek	-9.85697
imizi	-9.85769
liğini	-9.85783
teki	-9.85924
▁Le	-9.8595
▁şimdiye	-9.8599
▁komik	-9.86024
▁istedi	-9.86024
▁kayıt	-9.86025
▁Üniversitesi	-9.86028
yum	-9.86075
▁Bakın	-9.86096
▁bahsetmek	-9.8612
ist	-9.86133
▁hissi	-9.86133
▁vermeye	-9.86154
▁girdi	-9.86206
suz	-9.86316
▁ani	-9.86322
▁yaşamak	-9.8635
▁istiyorlar	-9.86464
▁geçir	-9.86485
▁Na	-9.8653
▁nesne	-9.86591
▁kullanan	-9.86595
▁bakarak	-9.86628
▁aşama	-9.86643
▁diyoruz	-9.86674
▁yakında	-9.86689
▁gemi	-9.86698
abilmek	-9.86745
▁bulmaya	-9.8678
E	-9.86838
▁açıkça	-9.87043
▁bakıp	-9.87058
ab	-9.87069
▁şeydi	-9.8707
▁toplantı	-9.87097
▁bitir	-9.87106
▁yaşıyoruz	-9.87122
up	-9.87191
▁yolunu	-9.87248
▁yollar	-9.87307
▁yarar	-9.87413
▁taklit	-9.87495
▁etmeyi	-9.8752
▁kon	-9.87687
▁dönüş	-9.87703
▁sor	-9.87732
kte	-9.87745
▁hakları	-9.87868
▁ürünü	-9.8788
▁yağ	-9.87894
▁artış	-9.87904
▁doğrudan	-9.8791
▁ettiğim	-9.87913
▁dönem	-9.87958
▁altyapı	-9.88005
▁edebiliriz	-9.88063
▁Ca	-9.88068
▁musun	-9.88069
▁veriler	-9.88085
▁anlamıyla	-9.88139
▁dokuz	-9.88185
▁gösterir	-9.88245
▁adet	-9.88416
▁deri	-9.88444
abiliyor	-9.88459
▁Ro	-9.88496
▁sandalye	-9.88505
▁tıbbi	-9.88524
▁terk	-9.88625
▁hız	-9.88643
lığını	-9.88658
▁ihtiyacınız	-9.88741
▁san	-9.88745
▁ekran	-9.88778
▁Ah	-9.88779
▁girme	-9.88816
▁seks	-9.88818
lerim	-9.8883
▁karşılık	-9.88836
▁dev	-9.88869
▁değeri	-9.88941
▁duvar	-9.89074
▁gazete	-9.89212
▁gittikç	-9.89219
▁kişiye	-9.89239
▁gösterme	-9.8926
▁büyüdü	-9.89296
▁farkı	-9.89421
▁kitle	-9.8959
▁ters	-9.89628
▁dolarlık	-9.89698
▁Önce	-9.89727
▁tehlike	-9.89754
▁mesafe	-9.89806
▁ulaşmak	-9.89863
han	-9.89872
▁ak	-9.8999
dılar	-9.90222
▁batı	-9.90237
kı	-9.90258
▁etmiş	-9.90271
▁kalıyor	-9.90327
▁yerden	-9.90611
▁misin	-9.90656
▁So	-9.9066
layarak	-9.90669
▁giriş	-9.907
▁taki	-9.90717
▁söyleme	-9.90729
rek	-9.90746
▁sıkı	-9.90803
▁sistemleri	-9.90829
ılan	-9.9096
▁kullanımı	-9.90989
▁yazar	-9.91015
▁serbest	-9.91029
▁kendilerine	-9.91247
▁dişi	-9.91341
mıyor	-9.91413
▁300	-9.91428
lanır	-9.91456
▁uzakta	-9.9152
▁Tekrar	-9.91545
▁sermaye	-9.91545
▁Irak	-9.91555
▁özgür	-9.91615
▁görüyorum	-9.91615
▁tablo	-9.91622
▁şehri	-9.91707
▁yetişkin	-9.91722
▁yerlere	-9.91766
▁potansiyel	-9.91775
▁sorunlar	-9.91912
▁merkez	-9.91914
▁geliştirme	-9.91941
▁dalga	-9.91977
▁bakım	-9.92063
▁Uzun	-9.92068
▁gönüllü	-9.92077
▁sert	-9.92091
▁kanıt	-9.92098
land	-9.921
▁ülkelerin	-9.92112
▁2000	-9.92139
▁kıta	-9.92143
▁denen	-9.92171
▁kuş	-9.92208
▁bahçe	-9.92226
▁çıkma	-9.92228
▁istedik	-9.92327
şe	-9.92427
▁topluluk	-9.9243
▁Geri	-9.92513
men	-9.92554
▁mağara	-9.92584
▁kayıp	-9.92625
▁ulusal	-9.92625
▁yarım	-9.92659
▁gurur	-9.92677
▁düşünüyoruz	-9.92679
▁hikayesi	-9.92681
▁askeri	-9.92706
▁edersiniz	-9.92723
▁getirme	-9.92798
luğu	-9.92913
W	-9.93004
▁olanak	-9.93014
▁olabileceği	-9.93043
▁yakıt	-9.93116
▁yerini	-9.93144
▁parçalar	-9.93222
lanması	-9.93228
▁ruh	-9.93245
▁Y	-9.93338
▁değişikliği	-9.93341
iyorlar	-9.93356
▁ediliyor	-9.93373
▁adamları	-9.93427
▁açtı	-9.93429
lardaki	-9.93473
▁kimin	-9.935
▁tavsiye	-9.93633
▁kendinizi	-9.93706
▁tutku	-9.93742
▁uyum	-9.93743
leniyor	-9.93818
▁etmesi	-9.93884
lendi	-9.93915
larsa	-9.93919
▁çılgın	-9.94008
üm	-9.94008
▁içi	-9.94073
▁çekme	-9.94092
▁olursak	-9.94151
▁berbat	-9.94162
▁uçak	-9.94178
▁Yaklaşı	-9.94257
▁sır	-9.94329
▁istediğiniz	-9.94348
▁olacaktı	-9.94368
lerdeki	-9.94372
ıyoruz	-9.94396
▁kurmak	-9.94414
▁bilmiyor	-9.94415
▁ihtimalle	-9.94463
▁sağlığı	-9.94561
▁elinde	-9.94575
▁kriz	-9.9462
▁sarı	-9.9465
▁Facebook	-9.94694
▁oksijen	-9.94694
▁ticari	-9.94694
▁zevk	-9.94694
▁Üçüncü	-9.94694
R	-9.94752
▁Ses	-9.9478
▁seç	-9.9479
▁An	-9.9484
▁ihtiyacım	-9.94877
▁olmaması	-9.94905
▁karşıya	-9.94943
▁sal	-9.95048
▁Biliyorsunuz	-9.95282
▁anahtar	-9.95358
▁endüstri	-9.954
▁bulun	-9.95615
eri	-9.95663
▁dile	-9.95739
▁başlangıç	-9.95742
▁Brezilya	-9.95767
▁İsrail	-9.95767
▁yorum	-9.95806
lenme	-9.95816
malısınız	-9.96076
▁karakter	-9.9609
▁kes	-9.96095
▁yaratıyor	-9.96105
▁inanç	-9.96118
▁199	-9.96129
▁yüzü	-9.96141
▁benden	-9.96156
▁ettiğini	-9.96157
▁sev	-9.96276
▁bulunma	-9.96277
▁talep	-9.96308
▁dayalı	-9.96338
▁evrensel	-9.96352
▁performans	-9.96378
▁Kar	-9.96478
▁ihtiyaçları	-9.96509
▁beyni	-9.96553
▁dal	-9.96634
▁isim	-9.96644
▁besin	-9.96646
layacak	-9.96649
▁hastalıklar	-9.96809
▁gelebilir	-9.96925
lamak	-9.97016
▁yapılması	-9.97024
▁düşündü	-9.97067
▁yazık	-9.97088
▁görüşme	-9.97133
▁yük	-9.97245
mizde	-9.97366
▁Şunu	-9.97385
▁hafıza	-9.97397
▁sivil	-9.97399
▁sıvı	-9.974
▁oluşturan	-9.97454
▁gördü	-9.97472
▁eminim	-9.97504
▁tanım	-9.97525
▁güney	-9.97539
▁Yap	-9.97578
▁kurtar	-9.97654
▁gösteri	-9.97668
▁gibiydi	-9.97682
▁marka	-9.97707
ren	-9.97776
▁robotlar	-9.97818
▁herkese	-9.97821
▁hassas	-9.97843
▁istiyorsanız	-9.98011
▁Ay	-9.98028
sen	-9.98056
▁miydi	-9.98108
▁edilmesi	-9.98139
▁başlama	-9.98164
yseniz	-9.98258
▁İkincisi	-9.98335
▁alabilir	-9.98372
▁çalıştık	-9.98421
▁meydan	-9.98435
▁yolla	-9.98443
▁Dedi	-9.98485
▁giriyor	-9.98487
hu	-9.9854
▁öğrendik	-9.98553
▁Kimse	-9.98558
müş	-9.98561
▁aksine	-9.98585
dığım	-9.98608
▁alarak	-9.98643
▁daire	-9.98697
▁değişiklik	-9.98702
▁çalışmalar	-9.98776
▁yoluyla	-9.98821
mesini	-9.98866
dıkları	-9.98868
▁fiyat	-9.9888
▁diğeri	-9.98963
▁kurallar	-9.99005
▁yemeği	-9.99029
▁deniyor	-9.99031
▁elektronik	-9.99067
▁kadının	-9.99075
▁çıkardı	-9.9911
▁edilebilir	-9.99134
tık	-9.99166
▁görünür	-9.99223
▁keşif	-9.99263
▁uydu	-9.99324
▁ortam	-9.99341
ber	-9.99358
▁çocuklara	-9.99384
▁hareketi	-9.9939
▁kullanım	-9.99468
lerimi	-9.99573
▁lerde	-9.99574
▁ismi	-9.99668
▁toplumsal	-9.99668
▁isterseniz	-9.99694
▁hissetme	-9.99743
▁hastane	-9.99754
▁is	-9.99803
nızın	-9.99897
▁me	-9.99963
▁değişti	-10.0001
▁görün	-10.0002
▁özelliği	-10.0014
▁AIDS	-10.0018
▁gruplar	-10.0018
▁eğitimi	-10.0023
▁yumurta	-10.0027
▁grubu	-10.0028
▁dönemde	-10.0033
ji	-10.0035
▁sahiptir	-10.0037
▁zamanlı	-10.0038
▁araçları	-10.004
▁durumunda	-10.0049
▁türden	-10.005
miştim	-10.0055
▁kendisini	-10.0061
▁sorunun	-10.0064
▁ağı	-10.0073
▁müdahale	-10.0074
▁kredi	-10.0081
▁Almanya	-10.0087
▁kemik	-10.0087
▁ödül	-10.0093
kan	-10.0095
▁olduğunuzu	-10.0095
unda	-10.01
▁yaşamın	-10.0102
▁Çocuklar	-10.0104
yoruz	-10.0108
▁öte	-10.0112
larımı	-10.0115
▁evin	-10.0116
▁kendileri	-10.0123
▁Co	-10.013
▁bırakma	-10.0132
▁barış	-10.0139
▁biyo	-10.0142
▁bağış	-10.0144
abileceği	-10.0149
▁oluşturuyor	-10.0152
makta	-10.0153
▁suçlu	-10.0155
▁kültüre	-10.0155
▁Pek	-10.0167
▁yazma	-10.0169
▁koyuyor	-10.017
▁aktivite	-10.0173
▁sistemler	-10.0178
▁birinde	-10.0182
▁Ku	-10.0183
mekte	-10.0187
▁alternatif	-10.0188
▁bütçe	-10.0188
▁atom	-10.0191
ho	-10.0202
▁nadir	-10.0205
▁patlama	-10.0206
▁filmi	-10.0207
▁Biri	-10.0211
▁getirir	-10.0212
▁kişiyi	-10.0219
▁bilgileri	-10.0227
▁art	-10.0227
▁ahlaki	-10.0239
▁yapması	-10.024
▁kaynakları	-10.0241
▁durumun	-10.0244
▁laboratuvar	-10.0247
▁başlayan	-10.0255
▁Japonya	-10.0255
▁bende	-10.0263
▁sonrası	-10.0264
▁nedeniyle	-10.0269
▁bahsediyor	-10.0271
▁hâle	-10.0278
ılması	-10.0282
▁beden	-10.0282
▁arzu	-10.0284
▁arkadaşları	-10.0286
bilme	-10.0292
▁taş	-10.0299
▁peki	-10.0299
▁Be	-10.0302
▁söylüyorum	-10.0315
▁getiren	-10.0318
▁Sizi	-10.032
▁ederken	-10.0322
▁oluşturur	-10.033
amaz	-10.0333
▁konuşmaya	-10.0336
▁uçuş	-10.0347
▁oluşturma	-10.0349
ydım	-10.0353
▁yanıt	-10.0354
▁gelişim	-10.0358
▁olmasının	-10.036
▁hukuk	-10.0361
▁popüler	-10.0361
▁kalmış	-10.0365
▁hikayeyi	-10.0366
▁Kenya	-10.0369
do	-10.0372
▁Özellikle	-10.0373
▁konuyu	-10.0377
▁eylem	-10.0383
▁yaptıklarını	-10.0389
▁tarafında	-10.039
ından	-10.0396
▁söyler	-10.0404
▁tak	-10.0414
▁vakit	-10.0421
▁Ulusa	-10.0422
▁dolara	-10.0428
ildi	-10.0429
▁organ	-10.043
▁oranda	-10.0442
▁anladım	-10.0449
▁deyişle	-10.045
▁g	-10.0458
▁olası	-10.0458
▁Hava	-10.0459
▁arkadaşı	-10.046
▁şiir	-10.0463
▁çalıştığı	-10.0466
▁müze	-10.0466
▁mahalle	-10.0467
▁istediği	-10.0469
▁ameliyat	-10.0473
▁alanları	-10.0474
▁kahve	-10.0479
▁profesyonel	-10.0479
▁psikoloji	-10.0479
▁devasa	-10.048
▁bölgede	-10.0484
▁baktığınızda	-10.0485
▁imkanı	-10.0488
ilebilir	-10.0494
ster	-10.0495
▁fikrini	-10.0498
▁kedi	-10.05
▁oluştur	-10.0501
▁birleştir	-10.0512
▁anlamlı	-10.0515
▁yaşa	-10.0522
▁his	-10.0525
▁Dünyada	-10.0525
▁Kız	-10.0528
▁sınırlı	-10.053
ık	-10.0532
iyet	-10.0534
▁radikal	-10.0538
▁çalışması	-10.0538
▁verdiler	-10.0542
▁alalım	-10.0545
▁denedi	-10.055
▁şansı	-10.0553
▁dünyasında	-10.0557
▁koyma	-10.0558
▁haklı	-10.0559
cek	-10.0562
▁kurdu	-10.0563
▁bizimle	-10.0572
▁bit	-10.0581
▁bomba	-10.0588
▁Genç	-10.0598
▁finansal	-10.0598
▁yönelik	-10.0604
iği	-10.0611
▁19	-10.0612
▁söyle	-10.0615
ore	-10.0617
j	-10.0619
▁tutmak	-10.0631
kça	-10.0643
▁gezegende	-10.0646
▁isimli	-10.0654
▁dedik	-10.0655
▁kum	-10.0657
aman	-10.0659
▁zihinsel	-10.066
▁baktığımızda	-10.0663
▁oku	-10.0666
▁ba	-10.0669
▁kendiniz	-10.0669
▁ata	-10.0672
▁şehirler	-10.068
▁bildiği	-10.0684
▁davran	-10.0694
▁Bizler	-10.0697
▁sonucunda	-10.0703
▁seçme	-10.0708
▁banka	-10.071
▁yapacağım	-10.0713
▁kendimize	-10.0716
▁klinik	-10.0718
▁Yalnız	-10.0718
▁vahşi	-10.0718
▁sıtma	-10.0721
▁verdiğimiz	-10.0724
▁çekmek	-10.0731
▁işim	-10.0744
▁saf	-10.0754
▁hepiniz	-10.0754
▁Hayat	-10.0758
▁çözmek	-10.0767
▁say	-10.0771
▁dik	-10.0777
▁rastgele	-10.0778
una	-10.0781
▁içeren	-10.0784
▁bildiğiniz	-10.0786
▁sistemin	-10.0786
▁Para	-10.0788
▁Baş	-10.0792
▁arı	-10.0793
▁durma	-10.0797
▁yolda	-10.0798
gen	-10.08
▁odada	-10.0801
▁önemi	-10.0804
▁Anne	-10.0805
▁tamamı	-10.0808
▁başlamak	-10.0812
▁insanlık	-10.0812
▁seviyede	-10.0814
▁üçte	-10.0814
▁yenilik	-10.0816
▁degil	-10.0823
▁kuvvet	-10.0835
▁koloni	-10.0836
ic	-10.0836
▁ekip	-10.084
▁dili	-10.084
▁Sağ	-10.0844
tım	-10.0844
▁köy	-10.0844
▁Genel	-10.0846
▁Neyse	-10.0847
▁imkan	-10.0851
▁kopya	-10.0854
if	-10.0858
▁düştü	-10.0865
▁Öncelikle	-10.0868
▁bilimi	-10.0869
▁yıllarda	-10.0871
▁çalıştığını	-10.0876
▁ü	-10.0876
▁bizden	-10.0878
▁dizayn	-10.0878
▁parayı	-10.088
ama	-10.0881
▁konuya	-10.0884
▁çağrı	-10.0893
▁sürede	-10.0894
ime	-10.0899
▁fosil	-10.09
▁güvenilir	-10.0901
▁Yakın	-10.0903
▁hissediyorum	-10.0904
▁milyarlarca	-10.0904
▁diyelim	-10.0905
▁dönüşüm	-10.0905
▁okulda	-10.0906
▁tatlı	-10.0908
▁yaşamı	-10.0911
▁gördüğüm	-10.0913
▁günümüzde	-10.0919
▁duy	-10.0925
▁sürece	-10.0926
▁fizik	-10.0931
▁hayatlarını	-10.0933
▁itibar	-10.0942
▁maliyeti	-10.0943
larınızı	-10.0945
▁gözüküyor	-10.0946
▁düşündüğümüz	-10.0949
▁arkadaşlarım	-10.0956
▁gerçekleştir	-10.0956
▁şişe	-10.0959
▁Eğitim	-10.0962
▁vergi	-10.0964
▁maruz	-10.0965
lıyoruz	-10.0967
▁kilit	-10.0975
▁ederiz	-10.0979
sh	-10.0981
ebileceği	-10.1002
▁karşılaştır	-10.1019
▁zamandır	-10.102
▁olabilirdi	-10.1025
▁uyku	-10.1026
▁birbirlerine	-10.1038
▁etmemiz	-10.1043
▁organizasyon	-10.1045
▁makinesi	-10.1051
▁uyar	-10.1054
▁görevi	-10.1058
▁bahsettiğim	-10.1071
lenmesi	-10.1074
▁sağlayabilir	-10.1074
▁yaptığınız	-10.1076
▁Doğa	-10.1081
▁ayar	-10.1082
▁kelimeler	-10.1082
▁acil	-10.1082
▁ısınma	-10.109
▁civarında	-10.1095
▁çalışırken	-10.1097
▁yarat	-10.1099
▁bakıma	-10.1099
▁Mi	-10.1101
yü	-10.1107
mdan	-10.1109
▁kullandığı	-10.111
larındaki	-10.111
▁re	-10.1114
▁fırsatı	-10.1124
▁ma	-10.1129
leyen	-10.1133
▁döndü	-10.1137
▁diz	-10.1141
▁dayan	-10.1145
▁firma	-10.1148
▁Twitt	-10.115
▁havada	-10.1152
artan	-10.1153
▁geliyordu	-10.1153
▁yapılıyor	-10.1155
▁aklım	-10.1157
ldukça	-10.1158
▁söyleyen	-10.1159
▁yenilikçi	-10.1164
▁Kadın	-10.1166
bil	-10.1178
uyor	-10.1183
▁tur	-10.1184
▁almış	-10.1193
larım	-10.1195
mer	-10.12
▁adalet	-10.1204
▁bakıyor	-10.1212
▁uyuşturucu	-10.1213
▁Değil	-10.1213
▁Uzay	-10.1213
▁taşıyor	-10.1214
▁olayı	-10.122
▁koyar	-10.1224
lerindeki	-10.1225
▁Sorun	-10.1228
▁Pi	-10.1231
lma	-10.1234
▁yazdı	-10.1236
▁sağlama	-10.1236
▁bunlara	-10.1237
▁servis	-10.1239
▁bilir	-10.1244
▁öğrenciler	-10.125
liyiz	-10.125
▁toplu	-10.1262
▁etkin	-10.1264
▁merkezinde	-10.1265
▁bol	-10.1275
▁Annem	-10.1276
▁Kesinlikle	-10.1277
▁karışık	-10.1278
▁dönme	-10.1278
acağı	-10.1282
▁metal	-10.1285
▁sürdü	-10.1285
▁av	-10.1287
▁Sağlık	-10.1288
▁yöntemi	-10.1304
▁zamanla	-10.1308
sü	-10.131
▁grafik	-10.1311
▁olmanız	-10.1313
imin	-10.1315
lerinizi	-10.1317
▁nöron	-10.1323
lerse	-10.1331
▁b	-10.1336
▁dürüst	-10.1339
mamız	-10.1339
▁örnekler	-10.134
▁felaket	-10.1341
▁blog	-10.1341
▁miktarı	-10.1344
▁geliştirmek	-10.1345
▁bar	-10.1346
▁yaşındayken	-10.1346
▁bilmiyoruz	-10.1351
▁salgın	-10.1368
▁kur	-10.137
▁ölçü	-10.1371
▁kızı	-10.1371
▁dön	-10.1374
▁sizler	-10.1378
▁ibaret	-10.1379
▁resimler	-10.1379
▁makina	-10.1392
▁kullanmaya	-10.1394
mden	-10.1401
▁içerik	-10.1402
▁yüzyılın	-10.1402
▁denilen	-10.1409
diğiniz	-10.1415
▁çeken	-10.142
▁birer	-10.1426
posta	-10.1427
▁domuz	-10.1433
▁manzara	-10.1439
▁hayvanların	-10.1441
▁adamlar	-10.1444
pi	-10.1449
▁birinci	-10.1451
▁yalan	-10.1454
şi	-10.1454
nce	-10.1458
▁zamana	-10.1461
▁rekabet	-10.1464
▁sıklıkla	-10.1469
▁tanıma	-10.1469
▁öğle	-10.147
▁düzgün	-10.1471
▁alıcı	-10.1473
▁basitçe	-10.1481
▁kimya	-10.1483
▁olmuştur	-10.1486
op	-10.1488
▁400	-10.149
▁saatte	-10.1492
seydi	-10.1494
▁alıyoruz	-10.1497
▁bo	-10.1497
▁planı	-10.1518
▁aşk	-10.1518
▁Ar	-10.152
▁oluşuyor	-10.1524
▁dergi	-10.1528
▁bireyler	-10.1532
▁olumlu	-10.1536
▁idare	-10.1536
▁Basit	-10.1536
▁anlatma	-10.1541
▁sıkıcı	-10.1541
▁boyu	-10.1542
▁gelince	-10.1546
▁hastalar	-10.156
▁düşman	-10.1561
▁çiftçi	-10.1566
▁çoğunuz	-10.1568
ebileceğimiz	-10.1571
leriniz	-10.1573
O	-10.1574
▁sebeple	-10.158
laşma	-10.1581
▁fikrim	-10.1585
▁bekleme	-10.1588
▁katman	-10.1594
▁Du	-10.1595
▁kritik	-10.1601
▁ziyade	-10.1601
▁Umarı	-10.1602
▁etkileyici	-10.1602
▁mercan	-10.1605
▁Farklı	-10.161
▁kulağ	-10.1611
▁üret	-10.1615
▁kart	-10.1618
▁Muhtemel	-10.162
cılar	-10.1624
▁uzman	-10.1634
▁fabrika	-10.1647
▁Bay	-10.1653
umuz	-10.1658
ut	-10.1665
▁köprü	-10.1668
▁Ülke	-10.1668
▁nihayet	-10.1668
▁otomatik	-10.1668
▁kutsal	-10.1669
▁aracılığıyla	-10.1669
▁çözümler	-10.167
ımızı	-10.1673
ad	-10.1674
▁duran	-10.1678
▁paylaşma	-10.1678
▁tuvalet	-10.1678
▁seçenek	-10.1681
▁sat	-10.1681
▁değiş	-10.1686
▁başlıyoruz	-10.1687
▁şifre	-10.169
mle	-10.1692
Y	-10.1692
▁çalışmaları	-10.1692
▁beslenme	-10.1694
▁edil	-10.1695
▁anlatacağım	-10.1699
diklerini	-10.17
▁galaksi	-10.1703
▁zordur	-10.1706
▁etmiyor	-10.1707
▁yaşadığı	-10.1712
▁kuzey	-10.1713
▁şirketlerin	-10.1716
▁yapabiliyor	-10.1727
▁Bi	-10.1728
▁değiştiriyor	-10.173
▁trilyon	-10.1734
▁kocaman	-10.1736
▁indir	-10.1741
▁beceri	-10.1747
▁hizmeti	-10.1751
▁Kendisi	-10.1759
▁Ön	-10.1762
▁biliyordum	-10.1763
▁falan	-10.1763
▁not	-10.1764
▁tasarımı	-10.177
▁buradan	-10.177
▁çatışma	-10.1772
▁Yer	-10.178
▁takımı	-10.1781
▁bitkiler	-10.1784
▁saç	-10.1786
asyon	-10.1787
▁yapıp	-10.1788
abilen	-10.179
▁vereceğim	-10.1791
▁teknolojisi	-10.1792
▁geçer	-10.1796
▁kuralları	-10.1797
▁Küresel	-10.1797
▁izleme	-10.1798
▁öne	-10.18
▁Kaliforniya	-10.1802
▁oyuncak	-10.1804
▁bireysel	-10.1804
▁isteme	-10.1805
▁engelli	-10.1806
yon	-10.1808
eceği	-10.1809
▁ahlak	-10.1809
▁savunma	-10.1816
▁şüphe	-10.1828
▁özgü	-10.183
▁kazandı	-10.183
düşünebilirsiniz	-10.1834
▁olaylar	-10.1835
▁toplama	-10.184
▁baktım	-10.1841
▁tren	-10.1847
▁ulus	-10.185
▁ürünleri	-10.1862
▁kullanıl	-10.1869
▁başlayalım	-10.1871
▁sakin	-10.1872
▁söyleyebilirim	-10.1873
▁kaba	-10.1876
▁sormak	-10.1878
▁diyorlar	-10.1879
▁yeteneği	-10.1886
▁tarzı	-10.1887
▁olamaz	-10.1888
▁anlatıyor	-10.189
▁yönde	-10.1891
▁olmasıdır	-10.1891
▁aldığı	-10.1894
▁cesaret	-10.1897
▁Dan	-10.1901
▁eseri	-10.1905
▁zemin	-10.1907
▁as	-10.1908
▁dönüştü	-10.1916
sidir	-10.1918
▁ederler	-10.1919
▁düzenleme	-10.1924
▁böcek	-10.1928
▁hastalığın	-10.1934
ılıyor	-10.1935
▁kullanıcı	-10.1936
▁çoğunluğu	-10.1939
▁bahsedeceğim	-10.1939
▁söylediğim	-10.1944
▁ırk	-10.1945
▁ç	-10.1949
▁duydum	-10.195
▁neyi	-10.1951
▁tersine	-10.1952
▁be	-10.1953
▁şehirde	-10.1959
▁fayda	-10.1963
▁özellikleri	-10.1971
▁başı	-10.1971
▁düşün	-10.1975
▁kaçır	-10.1976
▁dünyası	-10.1983
▁eksik	-10.1985
▁Si	-10.1987
▁altındaki	-10.199
▁geçiriyor	-10.1999
▁zamanında	-10.1999
iliyor	-10.2001
▁Pa	-10.2001
▁işletme	-10.2003
▁bilgisayarlar	-10.2003
▁hikayesini	-10.2006
▁yaşadığımız	-10.2018
▁hissettim	-10.2019
▁bulundu	-10.202
▁harcama	-10.2023
▁olacağız	-10.2028
▁katkı	-10.2032
▁günün	-10.2035
▁geçirdim	-10.2037
tor	-10.204
▁projesi	-10.2044
▁öz	-10.2045
ğe	-10.2047
▁aylık	-10.205
▁etrafta	-10.2053
▁müşteri	-10.2055
▁Bilgisayar	-10.2055
▁üretmek	-10.2056
▁yapılar	-10.206
lenen	-10.206
▁olmuyor	-10.206
▁Vi	-10.2062
▁konuşmayı	-10.2062
ysanız	-10.2063
▁George	-10.2074
▁hapishane	-10.2075
yacağım	-10.2077
▁Arap	-10.2081
▁ayında	-10.2084
▁değerlendir	-10.2087
▁hissed	-10.209
tür	-10.2092
mıyoruz	-10.2093
▁yasal	-10.2093
▁diğerleri	-10.2098
▁moda	-10.21
mıştır	-10.2108
▁hareketleri	-10.2109
▁yolunda	-10.211
▁ilaçlar	-10.2115
▁kolayca	-10.2117
abileceğimiz	-10.2117
▁çık	-10.2121
▁tutar	-10.2124
▁düşündüğüm	-10.2124
▁giy	-10.2129
▁biriydi	-10.2135
▁dinle	-10.2136
▁taşı	-10.2137
▁Lo	-10.214
▁oranında	-10.2142
▁blok	-10.2144
▁özgürlük	-10.2145
▁kapasite	-10.2147
▁bağımlı	-10.2148
leşti	-10.2149
▁eğlence	-10.215
▁rapor	-10.2152
▁benze	-10.2152
▁yolları	-10.2153
▁Hey	-10.2155
▁sahipler	-10.2157
miyorum	-10.216
▁değerlendirme	-10.216
▁olmasa	-10.2167
ünün	-10.2172
▁kişilik	-10.2174
▁alanlarda	-10.2182
▁yazdım	-10.2193
▁söyley	-10.2197
▁ücret	-10.2199
▁ailem	-10.2201
▁Po	-10.2204
▁yaratır	-10.2207
▁Herhangi	-10.2214
▁organize	-10.2215
▁çıkarıyor	-10.2215
▁Hala	-10.2215
▁organik	-10.2216
▁başkanı	-10.2224
▁görünmez	-10.2233
▁krizi	-10.2236
▁Sol	-10.2237
İ	-10.2244
yordu	-10.2248
▁gezegenin	-10.2254
▁liderlik	-10.2266
kları	-10.2279
▁taraf	-10.2283
▁iğne	-10.2284
▁şok	-10.2284
▁Sanat	-10.2285
▁artıyor	-10.2285
▁istemiyorum	-10.2288
▁döngü	-10.2291
▁aldığımız	-10.2298
▁erkeklerin	-10.2298
▁Ja	-10.2298
larımızda	-10.2299
▁dakikada	-10.2305
▁diş	-10.2307
▁seviyor	-10.2312
▁oran	-10.2313
emez	-10.2322
▁istedikleri	-10.2324
▁bağlantılı	-10.2324
▁koymak	-10.2326
▁kır	-10.2331
▁yaka	-10.2333
▁İşin	-10.2334
▁oyuncu	-10.2337
▁problemleri	-10.2342
▁atmosfer	-10.2345
▁çevir	-10.2355
▁Avustralya	-10.2355
▁Eylül	-10.2355
▁Sosyal	-10.2355
▁sıradışı	-10.2356
▁kulak	-10.2357
ümüz	-10.236
▁karınca	-10.2367
▁alıntı	-10.2368
▁ürünler	-10.237
▁hisseder	-10.2374
▁Te	-10.2383
nızda	-10.2389
gun	-10.239
▁kullanıyorlar	-10.239
▁çatı	-10.2391
▁üstesinde	-10.2396
▁geldim	-10.2403
lemek	-10.2405
▁çöz	-10.2418
▁kör	-10.2422
▁meşgul	-10.2427
▁kalite	-10.243
▁İslam	-10.2434
▁150	-10.2435
▁teknolojiler	-10.2448
▁Yo	-10.2448
mayan	-10.2449
▁oradaki	-10.2455
▁kaynaklar	-10.2456
▁gidecek	-10.246
▁yarış	-10.2461
▁siyahi	-10.2465
▁değişiklikler	-10.2469
▁günlerde	-10.247
▁maliyet	-10.2472
mis	-10.2472
▁baktı	-10.2478
▁hızı	-10.2485
▁kızlar	-10.2486
▁Gör	-10.2489
▁Paul	-10.2495
▁kategori	-10.2499
▁görülen	-10.2499
▁umarım	-10.2499
▁Neredeyse	-10.2499
ılır	-10.25
▁ekmek	-10.2501
▁söyledim	-10.2503
▁Li	-10.2504
▁Har	-10.2507
▁Bilgi	-10.251
▁renkli	-10.251
▁ofis	-10.2513
▁ortamda	-10.2514
▁geliştir	-10.2516
▁Kanada	-10.2521
mizle	-10.2525
layın	-10.2526
▁uyan	-10.2526
▁Biliyor	-10.2535
nuzu	-10.2535
▁kariyer	-10.2537
▁iste	-10.2541
▁kullanır	-10.2545
▁bulut	-10.2546
▁olursanız	-10.2547
▁zihin	-10.2547
▁lider	-10.2548
com	-10.2549
▁istemez	-10.2551
▁düzeyde	-10.2555
▁Babam	-10.2562
layıcı	-10.2565
▁Konuşma	-10.2566
leyerek	-10.2568
▁Savaşı	-10.2571
▁sohbet	-10.2571
▁korkutucu	-10.2571
madan	-10.2571
▁çal	-10.2573
▁oturup	-10.2573
▁testi	-10.2574
▁kullanabiliriz	-10.2579
▁yöne	-10.2585
▁35	-10.2587
sunu	-10.2588
▁ilişkiler	-10.2591
▁Los	-10.2593
ıldığında	-10.26
▁20.	-10.2606
▁söylediler	-10.2607
liğine	-10.2608
▁Ale	-10.2615
▁Afrikalı	-10.2616
▁Deniz	-10.2622
▁haberler	-10.2623
▁seri	-10.2631
▁memnun	-10.2633
tığını	-10.2635
ıyorlar	-10.2639
▁satış	-10.264
▁Darwin	-10.2644
▁daim	-10.2651
▁düşen	-10.2653
▁çeker	-10.2654
▁çağı	-10.2656
▁mühendislik	-10.2657
▁bugünkü	-10.2657
▁olmam	-10.2662
▁etkileri	-10.2664
▁sesini	-10.2667
▁deneyimi	-10.2674
malı	-10.268
▁çerçeve	-10.2684
▁tarif	-10.2684
▁kampanya	-10.2685
50	-10.2692
▁bulduğumuz	-10.2695
▁lise	-10.2696
▁keşfed	-10.2697
diğinde	-10.2697
▁reklam	-10.2699
▁edilme	-10.2706
▁açıyor	-10.2709
▁cesur	-10.271
▁çalışıyorlar	-10.2716
▁hayret	-10.2718
▁polen	-10.2719
▁Beyin	-10.2722
▁öğretti	-10.2725
ıyordu	-10.273
Times	-10.273
yıp	-10.2731
▁yüzey	-10.2734
▁farkettim	-10.2735
▁Araştırma	-10.2737
▁yarattı	-10.2739
▁işleme	-10.2741
▁değiştiren	-10.2743
▁tutma	-10.2744
▁ayakta	-10.2744
lendirme	-10.2749
▁yerleri	-10.275
maz	-10.2752
ğin	-10.2754
▁eğri	-10.2756
▁teknolojik	-10.276
▁Ke	-10.2776
dışı	-10.2779
▁yön	-10.278
yecek	-10.2781
▁koku	-10.2787
▁sağlam	-10.2788
▁anlıyor	-10.2788
▁dinamik	-10.2792
▁meyve	-10.2792
▁kaybı	-10.2792
▁benzeyen	-10.2792
▁tasarlanmış	-10.2793
▁tarihinde	-10.2796
▁açma	-10.2801
▁bakan	-10.2802
lılar	-10.2805
▁çıkarma	-10.2806
▁çiçek	-10.2807
▁yaratan	-10.2807
▁kişilerin	-10.281
▁gezi	-10.2811
▁vaka	-10.2815
yalım	-10.2817
aj	-10.282
▁düşünüyordum	-10.2821
▁v	-10.2823
▁taşıma	-10.2825
▁ölçekte	-10.2839
▁Göz	-10.2839
ince	-10.2842
▁savaşı	-10.2842
ladı	-10.2848
▁kalır	-10.2852
cü	-10.2859
▁teklif	-10.286
▁şirketleri	-10.2862
▁temelde	-10.2864
▁meslek	-10.2866
▁45	-10.2866
▁İnanılmaz	-10.2866
▁süreçte	-10.2866
▁görebiliriz	-10.2872
▁mezun	-10.2886
▁zorluk	-10.2886
▁Bill	-10.2886
▁süren	-10.2887
▁babası	-10.289
izm	-10.289
ac	-10.2891
▁duruma	-10.2892
için	-10.2896
▁kıyı	-10.2898
▁düzenli	-10.29
▁geçmek	-10.2904
▁öğrendiğim	-10.2906
luyor	-10.2911
▁zorlu	-10.2918
▁görmez	-10.2918
dunuz	-10.2923
▁ailesi	-10.2923
▁çekiyor	-10.2924
▁kullandık	-10.2928
▁Alman	-10.2929
nizde	-10.2932
▁anlaşma	-10.2933
▁şeylerle	-10.2933
▁geldik	-10.2935
▁yaşın	-10.2935
▁düzelt	-10.2937
▁yörünge	-10.294
▁bölgesinde	-10.294
▁alışveriş	-10.2941
lendir	-10.2944
▁gelmek	-10.2945
▁dolayısıyla	-10.2946
nüz	-10.2947
▁durumlarda	-10.2951
▁Sonuçta	-10.2951
biriyle	-10.2953
▁faydalı	-10.2953
▁yasak	-10.2954
▁dini	-10.2958
▁dönüyor	-10.2959
▁üreme	-10.2959
▁ni	-10.2959
▁peşinde	-10.296
leyici	-10.2962
▁ettikleri	-10.2963
▁Beş	-10.2964
▁girişimci	-10.2965
▁demokratik	-10.2974
V	-10.2978
▁Eve	-10.299
dığında	-10.2991
araya	-10.2992
▁Biliyoru	-10.2994
kinden	-10.2998
▁soruları	-10.3004
▁isterse	-10.3006
memiz	-10.3011
▁Einstein	-10.3017
▁mucize	-10.3017
▁şaka	-10.3017
▁fon	-10.3019
likten	-10.3021
▁erişim	-10.3022
▁çoktan	-10.3022
▁21.	-10.3024
▁hücresi	-10.3024
ırsınız	-10.3024
▁hayatım	-10.3027
▁Merkezi	-10.3028
mez	-10.3029
▁kamp	-10.3034
▁kapat	-10.304
▁şa	-10.3042
▁teknolojileri	-10.3043
▁ölme	-10.3047
▁bilinçli	-10.3048
▁Az	-10.3048
▁kolu	-10.3051
▁gelmişti	-10.3064
lin	-10.307
▁yargı	-10.3074
▁ucunda	-10.3076
▁75	-10.3078
ard	-10.3084
▁mesajı	-10.3087
PS	-10.3088
mızdan	-10.3091
▁soy	-10.3092
▁sahte	-10.3093
▁ölüyor	-10.3093
▁edelim	-10.3094
▁yapalım	-10.3097
ışı	-10.3103
▁ediyordu	-10.3108
▁konum	-10.3116
▁kısmında	-10.3121
▁deli	-10.3128
▁çabuk	-10.3129
▁tasarımcı	-10.3129
▁Günümüzde	-10.313
▁mekanizma	-10.3134
▁sürüyor	-10.3139
▁noktalar	-10.314
▁oyna	-10.314
▁teşhis	-10.3145
▁kıl	-10.3145
▁Yaşam	-10.3146
▁yerleştir	-10.3148
kleri	-10.315
▁tanımlama	-10.3155
▁öfke	-10.3157
▁Meksika	-10.3159
▁se	-10.316
ll	-10.3161
▁Fransız	-10.3163
▁İlki	-10.3166
▁imza	-10.3167
nuz	-10.3167
▁mekanik	-10.3173
▁kendim	-10.3177
▁çalışarak	-10.3178
kta	-10.3183
▁balon	-10.3187
▁dediğim	-10.3195
▁merhamet	-10.3202
▁üretiyor	-10.3204
▁oluyorlar	-10.3208
▁Jam	-10.3214
▁ideal	-10.3218
ası	-10.3219
▁ettir	-10.3221
▁delik	-10.3221
▁yapabileceğimiz	-10.3222
▁yapın	-10.3225
olog	-10.3225
▁elle	-10.3227
▁arttı	-10.3236
▁ordu	-10.3239
▁aptal	-10.3241
▁diğerine	-10.3241
▁projeler	-10.3245
▁geçmişte	-10.3245
landığı	-10.3246
▁göç	-10.3247
▁görmüş	-10.3248
madı	-10.3249
▁yarattığı	-10.3252
▁düşünen	-10.3259
▁sistemini	-10.326
▁kalmak	-10.326
larınız	-10.3262
ih	-10.3264
dınız	-10.3269
▁tahta	-10.3272
▁arabalar	-10.3273
▁As	-10.3276
▁le	-10.3277
▁kontrolü	-10.3277
▁Aile	-10.3279
▁yardımı	-10.3285
ciler	-10.3286
▁Açık	-10.3288
▁depo	-10.329
▁Fo	-10.3293
▁düzen	-10.3308
▁Soru	-10.3311
▁getirdiği	-10.3314
lerimizde	-10.3314
▁prototip	-10.3326
▁kırsal	-10.3328
▁kıyasla	-10.3331
▁ediyorsunuz	-10.3333
▁çalışmayı	-10.3341
▁katkıda	-10.3345
▁Go	-10.3346
liyor	-10.3355
▁sonuçta	-10.3359
▁edeceğim	-10.3362
▁takdir	-10.337
▁Ak	-10.3372
▁gelin	-10.3377
0.000	-10.3382
▁düşüyor	-10.3383
▁toplumda	-10.3387
▁gibidir	-10.3387
▁kalacak	-10.3389
▁Nijerya	-10.3394
lamaya	-10.3394
▁To	-10.3398
▁Savaş	-10.3399
ite	-10.3399
▁Fa	-10.3401
▁Mu	-10.3401
▁karikatür	-10.3401
▁anlayış	-10.3403
▁kendimiz	-10.3404
▁kütüphane	-10.3405
▁bedava	-10.3405
▁pozitif	-10.3405
▁macera	-10.3405
▁tanıştım	-10.3405
▁birbirleriyle	-10.3407
od	-10.3408
▁heykel	-10.3408
▁Okul	-10.3411
ban	-10.3418
▁paket	-10.3419
▁ağaçlar	-10.3427
▁sanayi	-10.3428
▁atık	-10.3429
▁oluşur	-10.3432
inizin	-10.3434
▁stres	-10.3439
▁hiçbiri	-10.3439
▁edebiliyor	-10.3441
▁algılama	-10.3443
▁kullanabilir	-10.3444
▁söyleyebilir	-10.3445
▁bırakmak	-10.3448
▁kurumlar	-10.3448
▁İran	-10.3451
▁sorumluluk	-10.3452
ül	-10.3453
▁oturuyor	-10.3453
▁döndüm	-10.3455
▁unutma	-10.3455
▁sözü	-10.3458
ınız	-10.3466
▁fa	-10.3467
▁üretme	-10.3474
▁kahraman	-10.3474
▁ardı	-10.3475
▁doktora	-10.348
▁uğra	-10.348
▁konuşacağım	-10.3481
▁MIT	-10.3484
▁Yüksek	-10.3484
▁mutlak	-10.3484
▁sigara	-10.3484
▁Fransa	-10.3485
▁ceza	-10.3486
uantum	-10.3486
▁ihtimali	-10.3487
▁uğraş	-10.3488
▁eşsiz	-10.3489
ilir	-10.3492
ırken	-10.3496
▁Jo	-10.3496
▁sizden	-10.3501
▁Mısır	-10.3501
▁cihazı	-10.3503
▁sınırları	-10.3509
▁giri	-10.3514
▁sorma	-10.3517
▁oyunları	-10.3518
▁biçimi	-10.3522
syon	-10.3524
▁yarışma	-10.3527
▁bulur	-10.353
▁dün	-10.3533
riyi	-10.3534
▁gördüğü	-10.3536
▁bıraktı	-10.3541
▁mekan	-10.3546
▁yapmanız	-10.3547
▁par	-10.3548
yacak	-10.3553
▁kablo	-10.3555
▁okulu	-10.3555
▁basın	-10.3555
▁Richard	-10.3564
▁cadde	-10.3564
▁dehşet	-10.3564
▁Fi	-10.3564
▁kilise	-10.3566
▁21	-10.3572
▁bahsediyorum	-10.3573
▁bölgelerde	-10.3574
▁tatil	-10.3575
▁değişiyor	-10.3577
▁anlattı	-10.3578
▁çözme	-10.3578
▁ulaşma	-10.3581
ılabilir	-10.3583
▁kahkahalar	-10.3583
▁soyut	-10.3583
▁Müslüman	-10.3583
▁gitmeye	-10.3586
▁bilgiler	-10.359
▁diyordu	-10.3591
▁sorduk	-10.3593
▁tipik	-10.3598
▁konuşan	-10.3598
▁faaliyet	-10.3599
mizden	-10.3599
sta	-10.3608
▁iyidir	-10.3609
▁platform	-10.3611
▁bakacak	-10.3615
▁iz	-10.3618
▁topluluğu	-10.3627
▁konferans	-10.3629
▁elimde	-10.3632
▁malzemeler	-10.3637
▁şeyle	-10.3637
▁iyisini	-10.364
▁okur	-10.3641
▁çalıştı	-10.3642
▁Washington	-10.3645
▁kömür	-10.3645
▁restoran	-10.3645
▁NASA	-10.3645
▁izliyor	-10.3646
▁kısaca	-10.3647
▁oluyordu	-10.3647
▁Anders	-10.3647
▁onay	-10.3654
▁duyarlı	-10.3657
▁bilmiyordum	-10.3664
laştı	-10.3664
landır	-10.3666
▁tanıyor	-10.3668
leştirme	-10.3668
▁anında	-10.3669
▁es	-10.3673
▁ayna	-10.3674
fer	-10.3674
▁protein	-10.3682
▁balina	-10.3684
▁saçma	-10.3684
▁özellikler	-10.3685
▁çekti	-10.3689
▁bilinç	-10.3693
▁şefkat	-10.3699
▁çıkmış	-10.3701
amp	-10.3703
dıklarını	-10.3707
▁çıkış	-10.3709
▁insani	-10.371
▁başlangıcı	-10.371
▁tutuyor	-10.3716
▁içe	-10.372
▁Adı	-10.3722
dığınız	-10.3726
▁İlginç	-10.3726
▁Allah	-10.3727
▁TV	-10.3728
▁2008	-10.3729
ebilmek	-10.3731
▁asker	-10.3732
▁etmenin	-10.3736
▁trafik	-10.3737
▁deneyler	-10.374
▁Sonrasında	-10.3746
▁savaşın	-10.3748
acaktır	-10.3754
ğu	-10.3756
▁öğret	-10.3758
▁oynat	-10.3762
▁birbirimize	-10.3763
▁ulaşım	-10.3766
likte	-10.3773
▁göçmen	-10.3774
▁ekoloji	-10.3774
meli	-10.3778
ral	-10.3781
▁kütle	-10.3787
▁tamir	-10.3788
▁inanma	-10.379
▁zorundasınız	-10.3793
▁pencere	-10.3796
▁geçirmek	-10.38
▁değişken	-10.3807
▁ter	-10.3807
▁olabiliriz	-10.3808
▁Harvard	-10.3808
▁Hikaye	-10.3808
▁görürüz	-10.3808
▁dokun	-10.381
▁büyüyen	-10.3811
▁bilimin	-10.3812
▁oynama	-10.382
▁ayır	-10.3821
miştir	-10.3823
▁gittiğini	-10.3827
▁yapmıyor	-10.383
▁öykü	-10.3831
▁internette	-10.3833
▁miyim	-10.3842
▁maymun	-10.385
▁bazılarını	-10.3852
layabil	-10.3853
▁Birisi	-10.3853
▁köşe	-10.3854
▁kardeşim	-10.3856
▁hükümeti	-10.3859
▁22	-10.3862
▁normalde	-10.3866
▁yeteri	-10.3866
▁hücrelerin	-10.3868
▁Oh	-10.3872
▁yatak	-10.3877
▁bulduğum	-10.3882
▁problemler	-10.3884
▁konular	-10.3886
ğım	-10.3886
▁ser	-10.3889
▁herkesi	-10.3889
▁Angeles	-10.3891
▁Temel	-10.3895
▁kullanılıyor	-10.3897
▁matematiksel	-10.3898
▁tarihte	-10.39
▁uzmanı	-10.3903
ımda	-10.3907
▁otur	-10.3907
▁Konu	-10.3912
▁çıktığı	-10.3919
▁komşu	-10.392
▁istiyordum	-10.392
▁veriyorlar	-10.392
▁şekilleri	-10.3922
isi	-10.3925
▁kadınlara	-10.3926
▁tanış	-10.3927
▁kültürü	-10.3929
▁kesim	-10.3935
▁girişim	-10.3936
▁riski	-10.394
ev	-10.3944
hr	-10.3944
▁haritası	-10.3946
▁evi	-10.3951
▁değerleri	-10.3951
▁organizma	-10.3952
▁Sal	-10.3953
▁halkı	-10.3955
▁yararlı	-10.3958
▁tersi	-10.3959
▁belge	-10.396
▁baktık	-10.3962
▁Gi	-10.3963
▁sesler	-10.3963
▁çekim	-10.3964
▁söylen	-10.3964
▁konuşuyor	-10.3965
ledi	-10.3968
▁kazanma	-10.3974
▁Ekonomi	-10.3974
▁akciğer	-10.3974
▁Amazon	-10.3974
▁gönderme	-10.3975
▁otobüs	-10.3982
▁Bizi	-10.3984
▁üreten	-10.3986
▁İç	-10.3987
▁Kur	-10.3988
▁kurduk	-10.3992
▁resme	-10.4
▁Toplum	-10.4001
▁etkiler	-10.4001
▁işçi	-10.4001
▁akım	-10.4005
▁dokunma	-10.4005
rak	-10.4006
▁Hayal	-10.4015
larımıza	-10.4016
▁işle	-10.4017
▁yapabilecek	-10.4022
▁rengi	-10.4025
lanabilir	-10.4032
▁çıkmak	-10.4036
▁In	-10.4039
▁öğrencisi	-10.4043
▁yuva	-10.4047
▁borç	-10.4058
▁Merhaba	-10.4058
▁ayağa	-10.4058
▁düşünürseniz	-10.406
▁ölen	-10.4061
▁oldular	-10.4062
▁gören	-10.4062
U	-10.4065
▁kaldım	-10.4067
▁mimar	-10.407
▁kurtarma	-10.4075
▁şeklini	-10.4076
ıldığı	-10.4076
▁götürdü	-10.4077
▁duygusu	-10.4078
leşiyor	-10.4079
▁olabiliyor	-10.4082
▁kullanılabilir	-10.4083
▁görü	-10.4085
nizle	-10.4087
▁odaklan	-10.4088
▁alanın	-10.4091
üs	-10.4097
▁düş	-10.41
▁gürültü	-10.4103
▁zamanın	-10.4104
▁gösterdiğim	-10.4104
▁kok	-10.4111
▁yaşındaydı	-10.4111
ırız	-10.4123
▁doğu	-10.4124
▁um	-10.4127
▁değilse	-10.4131
▁getirebilir	-10.4134
ire	-10.4135
▁çalıştır	-10.4139
▁yarıyor	-10.414
▁patent	-10.4142
▁saniyede	-10.4143
▁empati	-10.4143
▁mahkeme	-10.4143
▁görülüyor	-10.4143
▁kalıcı	-10.4144
▁Tanrım	-10.4148
tra	-10.4149
▁yapısını	-10.4149
,	-10.4156
▁inşaat	-10.416
▁ağrı	-10.4167
ilmesi	-10.4172
▁Altı	-10.4174
▁yaparlar	-10.4175
▁avukat	-10.418
▁araştırmalar	-10.418
12	-10.4184
▁Rus	-10.4194
▁gösterdiği	-10.4196
▁duyar	-10.4196
▁gizem	-10.4208
▁fotoğraflar	-10.4209
▁yapabilmek	-10.4213
▁c	-10.4217
▁gözleri	-10.4217
▁Tasarım	-10.4218
▁uzaktan	-10.4219
▁Bil	-10.422
▁ticaret	-10.4225
▁teslim	-10.4228
▁elbise	-10.4228
▁Dört	-10.4228
▁larda	-10.4228
▁etkileyen	-10.423
▁hamile	-10.4231
meyen	-10.4231
▁buyuk	-10.4232
rı	-10.4233
▁bant	-10.4234
▁gelişen	-10.4234
▁yapmalıyız	-10.4237
kal	-10.4241
diğinizde	-10.4242
▁döner	-10.4244
▁yapısı	-10.4254
▁öğretmenler	-10.4265
▁işlerini	-10.4266
▁Araba	-10.4268
leştirilmiş	-10.4268
▁lı	-10.427
▁olmama	-10.4271
▁sunuyor	-10.428
▁sisteminin	-10.4281
▁Tom	-10.4285
▁işini	-10.4289
▁Hu	-10.4292
▁eşi	-10.4295
▁bakmaya	-10.4299
▁sona	-10.4304
▁nehir	-10.4305
ladık	-10.4306
mesine	-10.4306
▁güzellik	-10.4311
▁eriş	-10.4314
▁büyüleyici	-10.4315
▁ilacı	-10.4316
▁çarpıcı	-10.4317
▁Web	-10.4317
ara	-10.4321
▁hile	-10.4322
▁bekler	-10.4323
iyordu	-10.4325
görebiliyorsunuz	-10.4326
▁23	-10.4327
▁açı	-10.4328
▁halkın	-10.433
▁rüya	-10.4335
▁Başkan	-10.4335
▁Cha	-10.4336
▁öngörü	-10.4344
▁kanun	-10.4352
▁bayan	-10.4353
▁küme	-10.4353
▁arttır	-10.4355
▁İnsanları	-10.436
▁depresyon	-10.4362
▁tamamıyl	-10.4364
bilir	-10.4367
▁dua	-10.437
▁1000	-10.437
▁he	-10.4375
▁sisteme	-10.4376
ja	-10.4378
per	-10.438
amazsınız	-10.4381
▁ayda	-10.4384
▁sınıfta	-10.4384
▁inancı	-10.4387
▁sanatı	-10.4388
▁geleceğin	-10.4388
▁kurum	-10.4388
▁tarafa	-10.4389
▁gerekti	-10.4394
▁Kore	-10.4394
▁kitaplar	-10.4396
▁görüntüler	-10.4398
▁azalt	-10.4398
▁fikirlerin	-10.4399
▁Charles	-10.4402
▁2010	-10.4403
ff	-10.4408
▁annesi	-10.4409
▁gelenek	-10.4411
▁başlay	-10.4416
abileceğini	-10.4422
▁yönet	-10.4423
▁klasik	-10.4427
▁duyduğumuz	-10.443
▁Gel	-10.4433
▁yerin	-10.4436
▁ilgisi	-10.4437
▁On	-10.4438
ss	-10.4439
▁yapmam	-10.4443
▁gazeteci	-10.4445
▁Veya	-10.4446
▁açığ	-10.4446
▁şart	-10.4449
▁çevresinde	-10.4449
▁hastalıkları	-10.4453
▁obje	-10.4459
▁değerler	-10.4465
▁hastaların	-10.4466
▁soruyor	-10.4468
▁sar	-10.4476
▁tarama	-10.4487
▁pi	-10.4488
▁sinyal	-10.4491
▁Şey	-10.4491
▁CO	-10.4492
▁versiyonu	-10.4492
▁başlayacak	-10.45
▁geçirme	-10.4501
▁doktorlar	-10.4501
▁kitapları	-10.4506
▁söyleyecek	-10.4507
▁kullanabileceği	-10.4509
▁aldığım	-10.4512
ımızın	-10.4516
meyecek	-10.4519
▁durdur	-10.4529
▁hepsinin	-10.4534
▁geride	-10.4535
▁girer	-10.4538
▁kasaba	-10.4539
▁Wi	-10.4539
▁enerjisi	-10.454
▁pazarlama	-10.4542
▁em	-10.4549
▁yazarı	-10.4551
lıyım	-10.4554
▁düşünüyorsunuz	-10.4563
▁sorgu	-10.4565
lerimize	-10.4566
▁gidebilir	-10.457
sıdır	-10.4572
▁türleri	-10.4573
▁dördüncü	-10.4578
▁düşünür	-10.4578
▁kaçınılmaz	-10.4578
▁Roma	-10.4582
▁seferinde	-10.4583
▁ayakkabı	-10.4584
▁direkt	-10.4585
▁aktar	-10.4585
▁güvenliği	-10.4589
▁Kan	-10.4592
▁sıcaklık	-10.4594
▁tutan	-10.4595
▁teki	-10.4597
▁kurgu	-10.4597
lanacak	-10.4597
▁üstü	-10.4599
lması	-10.46
▁git	-10.4603
▁düşüncesi	-10.4604
▁kaza	-10.4605
▁küre	-10.4605
▁dinleme	-10.4609
▁Car	-10.4612
▁özgün	-10.4619
▁koyun	-10.4623
▁sokak	-10.4631
▁noktaları	-10.4635
▁tabaka	-10.4638
▁duyuyor	-10.464
▁sok	-10.4642
▁lisans	-10.4643
▁hediye	-10.4644
▁üyesi	-10.4646
▁müziği	-10.4646
▁nüfusun	-10.4647
ğümüz	-10.465
▁tanıdık	-10.4651
▁onlarda	-10.4654
▁iniş	-10.4654
▁ötesin	-10.4665
▁Cevap	-10.4667
▁gülüşmeler	-10.4667
▁ötürü	-10.4667
▁Obama	-10.4667
▁Internet	-10.4667
▁gördünüz	-10.4668
▁yapılacak	-10.4669
▁detay	-10.467
▁Or	-10.467
▁açar	-10.4672
muyor	-10.4673
▁ayn	-10.4677
▁dosya	-10.4682
▁açan	-10.4683
▁kuruyor	-10.4685
▁Rusya	-10.4685
▁kimlik	-10.4685
indeki	-10.4687
▁liderler	-10.4689
gra	-10.4691
ebilen	-10.4693
▁çalışanları	-10.4695
muştu	-10.4698
▁istediğini	-10.4701
▁çağ	-10.4702
▁kalın	-10.4704
gan	-10.471
▁fotoğrafları	-10.4714
▁çoğal	-10.4715
▁ko	-10.4719
▁tekne	-10.4725
▁bildiğim	-10.4726
▁gelmesi	-10.473
▁modeller	-10.4731
amayacak	-10.4732
rerek	-10.4733
▁etkisini	-10.4735
▁anladı	-10.4737
▁keşfetmek	-10.474
▁oranları	-10.4748
▁Gu	-10.4753
▁şahit	-10.4757
▁ayrıntı	-10.4757
▁iPhone	-10.4757
▁şimdiki	-10.476
▁konuştuk	-10.476
▁adil	-10.4762
▁oturan	-10.4765
▁istiyorsunuz	-10.4767
▁vs	-10.4767
▁aileler	-10.4767
▁biridir	-10.4768
▁oluş	-10.4769
har	-10.4772
▁Çalışma	-10.4772
▁olunca	-10.4772
▁öğrenir	-10.4774
▁giderken	-10.4777
▁kızın	-10.4777
▁düzey	-10.4778
▁nesli	-10.4783
▁haftada	-10.4784
▁çekildi	-10.4785
▁çiftlik	-10.4787
▁27	-10.4791
ımın	-10.4794
▁tüketici	-10.4795
▁tümör	-10.4797
meyeceğim	-10.4798
▁geçtik	-10.4798
▁çıkacak	-10.4801
▁yay	-10.4805
▁Bar	-10.4808
▁sorusu	-10.4808
▁topu	-10.4809
▁Ri	-10.4812
▁mıydı	-10.4814
▁buluyor	-10.4815
▁tanrı	-10.4818
▁Senin	-10.4821
▁Film	-10.4823
▁Evren	-10.4824
▁haberi	-10.4828
ğında	-10.483
▁onda	-10.4832
▁Ni	-10.4835
▁sera	-10.4835
mayacak	-10.4835
▁kendisinin	-10.4839
▁yavru	-10.484
irken	-10.4842
▁oynuyor	-10.4842
▁görüşü	-10.4847
▁kadınları	-10.4848
▁mağaza	-10.4848
▁market	-10.4848
▁limit	-10.4848
▁tatmin	-10.4849
▁bakteriler	-10.485
▁Açıkça	-10.485
▁ücretsiz	-10.485
▁lik	-10.4852
▁Böylelikle	-10.4858
▁alınan	-10.486
▁öncesi	-10.4861
manın	-10.4868
▁uy	-10.4873
▁belir	-10.4877
▁olursunuz	-10.4878
▁aldılar	-10.4879
▁farklılık	-10.488
▁birey	-10.488
▁göze	-10.4882
▁vadede	-10.4885
ğini	-10.4886
▁kızım	-10.4887
▁harf	-10.4892
▁Ho	-10.4896
▁yeme	-10.4899
▁anlar	-10.4902
▁keşfettik	-10.4902
▁resimde	-10.4906
mar	-10.4906
▁Kadınlar	-10.4908
acaba	-10.4908
▁oğlu	-10.4912
layabilir	-10.4917
▁yetersiz	-10.4919
şı	-10.4919
▁sistemine	-10.492
▁yazılmış	-10.4924
▁kendisine	-10.4925
▁zinciri	-10.4925
▁Sana	-10.4932
▁modelleri	-10.4932
▁görüntüsü	-10.4934
▁ettiğiniz	-10.4934
▁bal	-10.4936
▁doğdu	-10.4936
▁göğüs	-10.494
▁kalabalık	-10.494
▁197	-10.494
▁hidrojen	-10.494
▁parçasını	-10.494
▁1990	-10.494
▁sıkıntı	-10.4947
▁ikisini	-10.4949
▁vakti	-10.4951
leyecek	-10.4955
▁bulunur	-10.4959
▁kararlar	-10.4961
▁deneyi	-10.4963
▁katıl	-10.4965
acağımız	-10.4967
▁nüfusunu	-10.4971
▁etmez	-10.4971
ot	-10.4974
▁istekli	-10.4974
▁yürüyüş	-10.4975
▁ilişkileri	-10.4975
▁başlamıştı	-10.4979
▁yapmaları	-10.4982
layabiliriz	-10.4982
▁insanlığın	-10.4985
▁mahkum	-10.4994
▁Kendimi	-10.4995
amayız	-10.4996
▁bırakıyor	-10.4998
▁do	-10.4999
▁aday	-10.5007
▁Ed	-10.5008
▁kalem	-10.5008
▁çocukken	-10.5009
▁sektör	-10.501
yorlar	-10.5011
dığınızda	-10.5011
▁edilir	-10.5013
▁sahnede	-10.5018
▁BM	-10.5026
▁buluş	-10.5028
▁kapan	-10.5029
▁garanti	-10.5032
▁Kötü	-10.5032
▁futbol	-10.5032
▁Ardında	-10.5033
▁düşünelim	-10.5033
▁bitirmek	-10.5036
▁taşıyan	-10.5038
larımdan	-10.5039
▁alıyorlar	-10.504
cilik	-10.5042
▁kutup	-10.5048
▁Yıllar	-10.505
▁99	-10.5053
▁Kaç	-10.5056
▁potansiyeli	-10.5061
▁geçtiğimiz	-10.5067
▁dersiniz	-10.5072
▁kaynaklı	-10.5077
▁teknolojiye	-10.5091
▁yüzünü	-10.5092
id	-10.5092
▁duymak	-10.5095
lıkla	-10.5101
umu	-10.5102
▁gençler	-10.5104
▁ulaş	-10.5105
duğunu	-10.5111
▁söylemeye	-10.5114
▁ölümün	-10.5117
▁eğit	-10.5121
▁yirmi	-10.5121
▁çözümü	-10.5123
▁kurulu	-10.5124
▁Pakistan	-10.5126
▁olumsuz	-10.5126
▁gözü	-10.5127
oz	-10.5129
▁geçici	-10.513
▁ilkel	-10.5132
▁olacaklar	-10.5141
▁dinlemek	-10.5142
▁Devletleri	-10.5143
▁üretimi	-10.5143
üyor	-10.515
▁yaklaş	-10.5152
▁Ber	-10.5158
▁köle	-10.5158
▁uça	-10.5162
▁öğrencilerin	-10.5163
ney	-10.5165
▁geldiler	-10.5165
▁zararlı	-10.5168
▁sız	-10.517
▁yeti	-10.5172
meden	-10.5173
▁kavram	-10.5175
▁makineler	-10.5176
ang	-10.5176
▁tanesini	-10.5182
sindeki	-10.5187
▁sahipti	-10.519
▁başlat	-10.5192
▁görebilir	-10.5195
▁ölçek	-10.5199
▁hayvanları	-10.52
▁zirve	-10.5201
▁yoldan	-10.5203
▁çöl	-10.5203
▁gölge	-10.5206
▁öneri	-10.5208
▁olduğunun	-10.5211
ollywood	-10.522
▁1980	-10.5221
▁kazanmak	-10.5222
▁gerçekleşen	-10.5223
▁sürecin	-10.5224
▁varlığı	-10.5229
▁operasyon	-10.5229
rma	-10.523
▁görebileceğiniz	-10.5231
▁durdu	-10.5232
▁vermiş	-10.5234
▁hizmetleri	-10.5237
▁hakim	-10.5243
▁öğreniyor	-10.5243
▁fil	-10.5246
▁uyarı	-10.5246
▁zihni	-10.5249
▁senaryo	-10.5256
▁rastla	-10.5257
▁içeriyor	-10.5262
ow	-10.5263
şa	-10.5286
▁İsveç	-10.5286
yorsunuz	-10.5289
nd	-10.5293
ov	-10.5296
▁etiket	-10.5298
▁tık	-10.5301
▁çalışmanın	-10.5302
▁çizim	-10.5302
▁önde	-10.5303
▁posta	-10.5305
▁binalar	-10.5305
▁iyisi	-10.5312
▁tecavüz	-10.5315
▁Apple	-10.5315
▁Beyaz	-10.5315
▁1960	-10.5316
▁Paris	-10.5316
▁içer	-10.5317
▁getirdik	-10.5317
▁kılan	-10.5324
▁çeşitlilik	-10.5332
▁amacıyla	-10.5336
▁mektup	-10.5338
▁koyduk	-10.5341
▁dağıt	-10.5342
▁birileri	-10.5342
▁anlayışı	-10.5344
▁kaybetme	-10.5348
▁balıkları	-10.5349
▁projenin	-10.5357
▁enfeksiyon	-10.5358
▁zorundaydı	-10.5359
▁doğrusu	-10.536
▁Çevre	-10.5362
▁döneminde	-10.5368
▁büyü	-10.537
▁genom	-10.5378
▁saatler	-10.5383
▁sun	-10.5387
▁bekle	-10.5389
▁öncelikle	-10.5389
▁işlerin	-10.5392
ebilirim	-10.5395
▁savaşta	-10.5401
▁dayanıklı	-10.5402
▁sap	-10.541
▁kaybetti	-10.5413
▁uyumlu	-10.5417
▁çip	-10.5417
▁demiş	-10.542
▁ruhu	-10.542
▁Steve	-10.5422
▁canlandır	-10.5426
▁bilin	-10.5433
▁taşın	-10.5433
▁hayatımda	-10.5439
▁çanta	-10.5442
▁meme	-10.5443
0	-10.5448
▁hikayeleri	-10.5449
▁verdiğim	-10.5454
▁istey	-10.5454
▁başar	-10.5455
▁mantık	-10.5458
▁puan	-10.5461
▁yönetme	-10.5471
we	-10.5474
raf	-10.5475
▁seviyesi	-10.5476
▁derdi	-10.5479
▁Amerikalılar	-10.5479
▁yazıcı	-10.5486
▁kalanı	-10.5488
miyoruz	-10.5491
liler	-10.5501
▁buzul	-10.5501
▁toplumu	-10.5502
▁büyüklüğünde	-10.5505
▁beğen	-10.5508
▁Michael	-10.5509
▁protesto	-10.5509
▁çocuğa	-10.5509
▁Francisco	-10.5509
▁tavuk	-10.5509
▁animasyon	-10.5509
▁üste	-10.551
▁gelmiyor	-10.5511
▁geçirdi	-10.5512
▁yaratıcılık	-10.5514
abilirim	-10.5514
▁ilerliyor	-10.5515
▁teorisi	-10.5517
▁türde	-10.552
▁kavramı	-10.5523
▁Nerede	-10.5523
▁yoksul	-10.5524
▁bölgesi	-10.5525
▁lerin	-10.5528
▁Sta	-10.5529
likleri	-10.5531
▁sayısını	-10.5532
▁Esas	-10.5534
▁ilgilidir	-10.5536
▁durur	-10.5538
he	-10.5544
ırlar	-10.5547
lim	-10.5547
▁yetenek	-10.5548
▁çalışıyordum	-10.5553
▁değiştirecek	-10.5555
▁karşılaş	-10.5561
▁seçimler	-10.5561
▁gözle	-10.5571
tif	-10.5576
▁ilerleye	-10.558
▁büyüt	-10.5598
▁izlemek	-10.5599
sızın	-10.56
ry	-10.56
▁söyledikleri	-10.5601
▁You	-10.5602
▁üstün	-10.5604
▁Baba	-10.5605
manyetik	-10.5606
klerini	-10.5607
▁belirgin	-10.5607
▁ölümcül	-10.5607
▁kablosuz	-10.5607
▁boru	-10.5608
▁Latin	-10.5609
▁ekibi	-10.5611
▁genişlet	-10.5615
▁hadi	-10.5619
▁heyecanlı	-10.5627
▁düşer	-10.563
▁olmalıyız	-10.5632
▁maaş	-10.5635
▁simetri	-10.5638
▁ke	-10.5641
▁sunum	-10.5644
▁etmesini	-10.5644
ong	-10.5647
▁anlatmaya	-10.5652
▁karşılaştı	-10.5653
ınızı	-10.5654
▁Gece	-10.5661
▁Hepiniz	-10.5663
▁yaşamış	-10.5663
▁telefonları	-10.5664
je	-10.5664
▁rolü	-10.5667
▁ayağı	-10.5667
ıyorum	-10.567
▁198	-10.5671
▁başladığı	-10.5677
▁Hasta	-10.5678
▁Japon	-10.5681
mla	-10.5682
unuz	-10.5683
▁atmak	-10.5684
▁bilen	-10.5685
▁hasar	-10.5698
▁Thomas	-10.5706
▁kaldık	-10.5706
▁olanları	-10.571
▁etmişti	-10.5711
▁umuyorum	-10.5711
▁onlarca	-10.5715
▁diyecek	-10.5716
▁sayıları	-10.572
▁yaşan	-10.5724
▁kut	-10.5731
▁düşünmemiz	-10.5738
▁açıklamak	-10.5743
▁kabile	-10.5744
▁kullanmayı	-10.5745
▁araştırmacı	-10.5751
▁oturma	-10.5752
▁başlayabilir	-10.5755
▁inceleme	-10.5755
ebileceğiniz	-10.5762
▁İz	-10.5762
▁otel	-10.5766
▁uzan	-10.5767
▁biçim	-10.5773
siydi	-10.5776
▁katılma	-10.5778
▁şekillerde	-10.5778
▁fırtına	-10.5778
▁gelmez	-10.578
lıkta	-10.5784
▁görür	-10.5786
▁üretken	-10.5793
▁denk	-10.5795
süz	-10.5796
▁muhtemel	-10.5797
▁yapımı	-10.5797
lamaz	-10.58
▁yönünde	-10.5801
▁atma	-10.5804
▁yönü	-10.5805
▁röportaj	-10.5806
▁desteği	-10.5807
▁millet	-10.5807
▁tüket	-10.5809
▁düşünerek	-10.581
▁Hangi	-10.5811
▁konuşurken	-10.5811
▁dâhil	-10.5813
▁gri	-10.5814
▁terör	-10.5818
▁Kafa	-10.5818
▁değişen	-10.5819
▁istiyorsak	-10.5821
müz	-10.5829
▁Ara	-10.583
▁denir	-10.5833
▁boz	-10.5833
▁anti	-10.5838
▁okumak	-10.5843
▁uzunluğunda	-10.5845
▁istatistik	-10.5846
▁kalıp	-10.5847
▁kaydı	-10.5851
▁ülkeleri	-10.5852
▁dersi	-10.5854
▁yaşlanma	-10.5858
▁saldır	-10.5865
▁hayatımızı	-10.5865
emedi	-10.5868
▁arıyor	-10.5868
▁konuşmalar	-10.5872
▁seyirci	-10.5876
▁ağzı	-10.5878
▁işlemi	-10.5881
▁grubun	-10.5882
▁gövde	-10.5888
▁Burda	-10.5889
▁yaşta	-10.589
▁yönel	-10.5891
ris	-10.5896
▁noktasında	-10.5899
▁geleceğ	-10.59
▁algoritma	-10.5902
▁pompa	-10.5907
▁bağışıklık	-10.5907
▁2007	-10.591
▁çelişki	-10.5911
▁öğrencileri	-10.5911
▁siyaset	-10.5912
▁edilemez	-10.5913
▁çalışıyordu	-10.5914
imize	-10.5915
▁mantar	-10.5916
▁çalışmıyor	-10.5921
▁gelmeye	-10.5922
▁erişimi	-10.5924
▁olmalıydı	-10.5924
▁ah	-10.5931
▁niye	-10.5935
▁yarattık	-10.5937
▁yapılma	-10.5939
▁eli	-10.5941
▁toz	-10.5946
▁odadaki	-10.5948
▁topluma	-10.5949
▁kazanan	-10.5952
▁Bildiğin	-10.5955
▁Kara	-10.596
▁görüntüleme	-10.5964
▁olmazdı	-10.5964
▁okyanusun	-10.5966
▁orda	-10.5968
▁vazgeç	-10.5968
▁seviyesinde	-10.5969
▁savaşa	-10.5969
▁Seni	-10.597
ram	-10.5976
▁yaklaşımı	-10.5977
▁tutun	-10.5977
ceği	-10.5979
gar	-10.598
▁davranışı	-10.5983
▁artışı	-10.599
▁yürüy	-10.5994
▁demişti	-10.5994
▁boşluk	-10.6007
▁özgürlüğü	-10.6007
alesef	-10.6008
▁efsane	-10.6009
▁roket	-10.6009
▁nasil	-10.6009
▁çamaşır	-10.6009
▁söylemeliyim	-10.6009
▁karşılıklı	-10.601
ladığı	-10.6011
▁yollarını	-10.6012
ymış	-10.6013
▁bekleyen	-10.6016
▁kardeşi	-10.6016
▁biten	-10.6022
▁yaşı	-10.6027
▁detaylı	-10.6028
▁yapıyordu	-10.6029
▁sonuc	-10.6029
▁açlık	-10.6032
manız	-10.6032
▁olabilirler	-10.6034
▁geliyorlar	-10.6037
hur	-10.6038
▁Wa	-10.6038
▁Robot	-10.6041
▁Mary	-10.6043
▁edebileceğiniz	-10.6044
▁olasılığı	-10.6053
uğu	-10.6054
ymiş	-10.6058
▁şaşır	-10.6059
▁istemedi	-10.6068
▁mühendisliği	-10.6071
ktir	-10.6096
▁sı	-10.6101
▁yerli	-10.6103
▁bebekler	-10.6105
ütfen	-10.6112
▁dunya	-10.6112
▁bayağı	-10.6112
sıl	-10.6116
▁bahsed	-10.612
▁yaparız	-10.612
▁inanıyoruz	-10.6121
ks	-10.6122
▁grip	-10.6123
▁ilişkin	-10.6126
▁yarısını	-10.6128
▁ların	-10.6131
▁Oyun	-10.6131
▁Enstitüsü	-10.6132
▁okudum	-10.6136
▁görülme	-10.6137
▁egzersiz	-10.6137
▁atar	-10.6144
▁evrende	-10.6145
▁değiştirir	-10.6147
▁Kal	-10.6148
▁çıkart	-10.615
▁söyleyeceğim	-10.6153
▁merdiven	-10.6158
▁öğrenmeye	-10.616
▁yaşar	-10.616
duğu	-10.6163
keresinde	-10.6164
▁odaklanma	-10.6165
▁farketme	-10.6173
for	-10.6173
ucu	-10.6173
▁üye	-10.6175
▁evlilik	-10.6178
▁tuttu	-10.6185
▁doldur	-10.6193
▁ar	-10.6196
▁ağın	-10.6202
▁doğan	-10.6207
▁kuşlar	-10.6208
▁çocuklarımız	-10.621
▁değişimin	-10.6214
▁kavga	-10.6216
▁programları	-10.6217
▁durup	-10.6221
▁ebeveyn	-10.6223
▁ilgilen	-10.6223
▁kayda	-10.623
▁yığın	-10.6231
▁bilgisayarın	-10.6231
▁özellik	-10.6233
▁getirecek	-10.6235
ğını	-10.6239
iyorsunuz	-10.6239
▁Park	-10.6243
▁evinde	-10.6244
▁Tahmin	-10.6244
ana	-10.6245
▁başla	-10.6245
les	-10.6247
▁edersek	-10.6249
ft	-10.6251
▁veriyorum	-10.6251
▁resimleri	-10.6256
▁eğilim	-10.6257
lenir	-10.6264
▁arabanın	-10.6268
▁söylüyorlar	-10.627
▁Ek	-10.6272
▁günler	-10.6274
▁pratik	-10.6276
▁başardık	-10.628
riyoruz	-10.6282
▁belirsiz	-10.6283
ebileceğini	-10.6287
etti	-10.6292
▁genelinde	-10.6292
▁Doktor	-10.6298
▁yıldızlar	-10.6298
▁milli	-10.6302
▁dışındaki	-10.6306
▁olurlar	-10.6306
▁ekosistem	-10.6307
▁deme	-10.6311
▁sürücü	-10.6314
▁gittiği	-10.6315
▁Sır	-10.6317
▁ülkedeki	-10.6318
▁kitabın	-10.6319
▁Art	-10.6321
▁çirkin	-10.6321
▁pembe	-10.6321
▁protez	-10.6321
▁Pazar	-10.6321
▁dönelim	-10.6323
▁vereyim	-10.6324
▁gücüne	-10.6325
▁oynar	-10.6326
▁gerçekleşiyor	-10.6327
▁bakıyoruz	-10.6337
▁kızların	-10.634
▁oturur	-10.634
▁saha	-10.6342
▁gittiğimde	-10.6343
▁karıştır	-10.6344
▁açmak	-10.6347
▁65	-10.6347
▁Fe	-10.6354
rayı	-10.636
▁gid	-10.6365
▁avcı	-10.6367
▁gerçekliği	-10.637
ğim	-10.637
▁derler	-10.6372
▁gerçekleşti	-10.6375
▁tanımı	-10.6375
▁bahseder	-10.6379
leşik	-10.638
▁yaşadığım	-10.6387
▁haberleri	-10.6389
lemeye	-10.6394
▁Ölüm	-10.6394
▁ekonomisi	-10.6398
▁oynamak	-10.6399
▁kayded	-10.6399
▁utan	-10.64
▁seçimi	-10.6404
▁büyür	-10.6404
▁yapabilme	-10.6408
▁değiştirmeye	-10.6412
▁yolun	-10.6414
▁arayüz	-10.6415
▁kurtul	-10.6425
▁büyüklüğü	-10.6426
▁frekans	-10.6428
▁Alzheimer	-10.6428
▁hariç	-10.6428
▁kompleks	-10.6428
▁Önemli	-10.6428
▁şikayet	-10.6428
▁koruyucu	-10.6428
▁kafatası	-10.6428
asyonu	-10.643
oloji	-10.6433
▁şiddetli	-10.6433
▁sorum	-10.6434
▁gücün	-10.6435
▁Wal	-10.6437
▁bariz	-10.644
qu	-10.6443
▁dönen	-10.6443
▁düşme	-10.6446
▁yaptır	-10.6446
▁yen	-10.6448
▁kazı	-10.6453
▁yazıyor	-10.6454
▁yapabileceğiniz	-10.6455
▁baz	-10.6457
▁örgüt	-10.6458
▁problemin	-10.6462
▁arkasındaki	-10.6464
▁Ana	-10.6468
yacağını	-10.6469
▁aletler	-10.647
▁şirketin	-10.647
▁etrafındaki	-10.6474
▁uygulan	-10.6475
▁Am	-10.6476
▁verebilir	-10.6478
▁faydalan	-10.6479
maları	-10.6481
▁taşındı	-10.6486
▁ismini	-10.6487
▁düşünüyordu	-10.6493
▁anket	-10.6493
rü	-10.6496
▁nesneler	-10.6504
▁düşüş	-10.6505
dığımda	-10.6506
acağımızı	-10.6507
▁öncesinde	-10.6507
▁Birliği	-10.6509
▁biliyorlar	-10.6509
▁maden	-10.6511
▁korkuyor	-10.6513
▁kalmıyor	-10.6514
▁dalış	-10.652
▁Fark	-10.6522
▁zar	-10.653
▁planlama	-10.6532
ligi	-10.6532
▁hayali	-10.6534
▁kılavuz	-10.6535
▁çıplak	-10.6535
▁şarap	-10.6535
▁Boston	-10.6535
▁nano	-10.6537
▁mülteci	-10.6541
▁çelik	-10.6543
▁türler	-10.6548
▁nüfusu	-10.6551
▁başım	-10.6552
▁iyileşme	-10.6552
▁olabildiğin	-10.6552
▁edebilecek	-10.6554
▁güvende	-10.6557
▁fi	-10.656
▁gizemli	-10.6561
▁of	-10.6562
cük	-10.6563
ılacak	-10.6568
▁ağacı	-10.657
▁gönderiyor	-10.657
▁çeşitliliği	-10.6571
▁gidiyoruz	-10.6571
▁Per	-10.6574
▁bulabilir	-10.6574
▁bulunduğumuz	-10.6575
▁aşık	-10.6575
▁yoksulluk	-10.6577
▁19.	-10.6579
▁Pan	-10.6583
▁neşe	-10.6584
▁eşim	-10.6585
▁ihtimal	-10.659
▁çoğumuz	-10.6592
▁eyalet	-10.6592
yip	-10.6594
▁kullandı	-10.6595
▁amaçlı	-10.6598
▁suda	-10.6601
labilirsiniz	-10.6602
▁ağlar	-10.6606
▁elini	-10.6608
▁kent	-10.6615
▁geliştirdik	-10.6616
▁bakabilir	-10.6619
ğimiz	-10.6627
▁meselesi	-10.6628
▁şehirlerde	-10.6629
▁otizm	-10.6634
▁engeller	-10.6634
▁Yapma	-10.664
▁Higg	-10.6644
▁global	-10.6644
▁yumuşak	-10.6644
▁iyimser	-10.6644
▁keskin	-10.6644
▁göreceğiz	-10.6644
▁pasif	-10.6644
▁bölgelerinde	-10.6646
▁gösterecek	-10.6646
▁yaşıyorlar	-10.6647
▁dost	-10.6648
▁sistemimiz	-10.6649
▁Mavi	-10.6649
▁belirt	-10.665
▁fotoğrafçı	-10.665
▁katlan	-10.6651
▁geleceğini	-10.6652
▁duyuyorum	-10.6652
▁gerçekçi	-10.6653
▁yaparsınız	-10.6655
▁kötüsü	-10.6655
▁içme	-10.6661
▁başkalarının	-10.6663
gin	-10.6663
▁geçirir	-10.6666
▁yiy	-10.667
▁Birinci	-10.667
▁Gün	-10.6671
▁karşılaşma	-10.6671
▁görüntüleri	-10.6675
▁etkiliyor	-10.6676
lisiniz	-10.6686
▁Dur	-10.6693
▁zamanki	-10.6703
▁yazmak	-10.671
▁kalk	-10.6723
▁yapabileceği	-10.6723
▁edebilme	-10.6726
▁artır	-10.6727
▁yil	-10.673
abiliyoruz	-10.6736
üstü	-10.674
▁boyutu	-10.6741
▁keşfetme	-10.6742
▁Gelecek	-10.6743
▁direk	-10.6747
▁Mark	-10.6748
▁Pasifik	-10.6754
▁Yeşil	-10.6754
▁gübre	-10.6754
▁itiraf	-10.6754
▁İklim	-10.6754
▁tavan	-10.6754
▁uzağ	-10.6756
▁diyebiliriz	-10.6759
▁mutasyon	-10.676
▁kartı	-10.6761
▁araştır	-10.6763
ttiği	-10.6763
▁benzin	-10.6764
▁tüp	-10.6773
▁tasarımcılar	-10.6774
▁gelişimi	-10.6776
▁sürme	-10.6777
▁ülkeye	-10.678
▁davranma	-10.6784
▁çekilmiş	-10.679
ydü	-10.679
▁sırt	-10.6795
▁koydum	-10.6795
▁havaya	-10.68
▁derken	-10.6802
▁izni	-10.6802
▁fikrin	-10.6805
▁yönetimi	-10.6808
▁işareti	-10.6808
▁devamlı	-10.6809
▁Şimdiye	-10.6813
▁Bende	-10.6813
▁istediler	-10.6821
▁kuvvetli	-10.6825
▁görebiliyor	-10.6827
▁dönmek	-10.6831
nizden	-10.6833
▁biriyle	-10.6835
▁dönüm	-10.6839
▁anlatır	-10.6843
▁etmeniz	-10.6844
▁terörist	-10.6848
▁azaltma	-10.6854
▁inanıyor	-10.6855
▁görünüyordu	-10.6855
▁hisse	-10.6855
din	-10.6858
▁Gülüş	-10.686
▁sürpriz	-10.6865
▁deprem	-10.6865
▁endüstriyel	-10.6865
▁cazibe	-10.6865
▁baylar	-10.6865
▁Kongre	-10.6866
▁sola	-10.6866
▁utanç	-10.6867
▁gösterilen	-10.6868
▁Peter	-10.6868
▁Kral	-10.6874
▁görebiliyoruz	-10.6875
▁çıktık	-10.6876
▁oyunun	-10.6877
▁hâline	-10.6878
▁temin	-10.6879
▁çoklu	-10.6881
▁öğretme	-10.6881
▁çözmeye	-10.6883
imizde	-10.6883
▁Yaptığımız	-10.6884
▁açıp	-10.6885
▁almayı	-10.6886
▁sevdikleri	-10.6889
▁bildir	-10.6889
▁bahsetme	-10.689
▁ad	-10.6891
▁sorar	-10.6893
▁hap	-10.6894
▁oturdu	-10.6898
ulmuş	-10.6901
▁Milletler	-10.6907
▁koca	-10.6907
by	-10.6909
▁h	-10.692
▁kurtarmak	-10.6922
▁oğlum	-10.6923
liydi	-10.6925
▁kazanıyor	-10.6928
▁sağladığı	-10.693
▁aşkın	-10.6931
larımın	-10.6931
▁üyeleri	-10.6935
▁kâr	-10.6936
▁aşağıda	-10.6938
▁boyutta	-10.6938
▁varmış	-10.6941
ly	-10.6946
▁oluştu	-10.6946
▁ucu	-10.6954
▁Ge	-10.6957
▁mobil	-10.696
▁hücrelerini	-10.6961
▁büyüyor	-10.6968
▁Kısa	-10.6971
altı	-10.6971
▁çarpma	-10.6975
▁beklenmedik	-10.6977
▁motivasyon	-10.6977
▁örümcek	-10.6977
▁fotograf	-10.6977
▁Fikir	-10.6977
▁ispat	-10.6977
▁sanmıyorum	-10.6977
▁1970	-10.6978
▁mısır	-10.6978
▁soyu	-10.6979
▁kalmadı	-10.698
▁edeceğiz	-10.6983
▁şehirlerin	-10.6983
▁oluruz	-10.6984
▁oluşturduk	-10.6984
▁azalma	-10.6984
▁esnek	-10.6986
▁demir	-10.6987
▁onur	-10.6989
muzu	-10.6989
▁ö	-10.6992
▁yönlendir	-10.6997
▁durumlar	-10.6998
▁babamın	-10.6999
▁pilot	-10.7002
▁başlattı	-10.7002
▁istersiniz	-10.7005
▁atıyor	-10.7008
▁biliyordu	-10.7009
▁Alan	-10.7012
▁varlığını	-10.7012
▁kay	-10.7014
ınca	-10.7016
▁Görüyorsun	-10.7026
unuzu	-10.7026
▁bulup	-10.7026
▁eksikliği	-10.7029
▁yapıldığını	-10.7032
▁lif	-10.7033
▁olmalıdır	-10.7036
▁değişir	-10.7038
▁kamyon	-10.704
▁konularda	-10.7041
rat	-10.7044
▁karbondioksit	-10.7046
▁etraf	-10.7052
▁kalitesi	-10.7054
▁yanda	-10.7064
şık	-10.7066
▁oluşturdu	-10.7073
▁sil	-10.7073
iyordum	-10.7078
▁the	-10.7079
▁kurban	-10.7082
▁3.	-10.7082
▁inanmak	-10.7087
▁oldugunu	-10.7087
▁intihar	-10.7091
▁istisna	-10.7091
▁orkestra	-10.7091
▁tedarik	-10.7091
▁radyasyon	-10.7091
▁tarayıcı	-10.7091
▁meşhur	-10.7091
▁gereği	-10.7091
▁devrimi	-10.7091
▁alkol	-10.7092
▁kullanışlı	-10.7093
▁izleyen	-10.7095
ıyorsunuz	-10.7096
▁konuşur	-10.7098
▁Kısaca	-10.7098
▁Mc	-10.7098
▁yapılabilir	-10.7098
▁gelişti	-10.71
▁metin	-10.71
▁slayt	-10.71
▁mühendis	-10.71
▁olgu	-10.7104
▁önemsiz	-10.7104
▁tümü	-10.7105
▁sahil	-10.7105
▁çılgınca	-10.7106
ero	-10.7107
lüyor	-10.7107
▁açıkçası	-10.7107
▁orası	-10.7108
▁ellerinde	-10.7114
▁yapıyorsunuz	-10.7119
tro	-10.7119
▁oynay	-10.7125
▁şanslı	-10.7129
▁600	-10.7132
▁Hint	-10.7136
▁buradayım	-10.7137
▁sunu	-10.7138
▁yürüme	-10.7143
berg	-10.7146
▁sunmak	-10.7148
▁ışığın	-10.715
▁Martin	-10.7152
▁yapacağını	-10.7154
▁öğrendiğimiz	-10.7159
▁yetenekleri	-10.7161
▁bulmuş	-10.7164
▁zehir	-10.7165
▁refah	-10.7165
▁çıkması	-10.7167
▁yanındaki	-10.7173
▁Es	-10.7176
▁koşu	-10.7177
▁ilişkili	-10.7179
müyor	-10.718
▁yetenekli	-10.7184
▁İster	-10.7185
ladım	-10.7189
imde	-10.7195
▁beyninin	-10.7199
▁tartış	-10.7201
▁yarın	-10.7202
▁olmasından	-10.7204
▁golf	-10.7206
▁orijinal	-10.7206
▁bilinmeyen	-10.7206
▁Vadisi	-10.7207
▁vermiyor	-10.721
▁başlangıçta	-10.7211
▁yaşıyordu	-10.7211
▁umuyor	-10.7212
ıma	-10.7213
▁sihirli	-10.7215
▁verildi	-10.7215
▁İçinde	-10.7216
dor	-10.7218
▁çıkarıp	-10.7223
▁uzat	-10.7229
Tub	-10.723
▁arar	-10.7237
▁yatan	-10.7241
▁dönemi	-10.7243
▁derinden	-10.7243
bur	-10.7244
▁işlev	-10.7245
▁vizyon	-10.7247
▁Mar	-10.7249
bar	-10.7253
▁küçü	-10.7255
▁aileleri	-10.7258
▁oyunlar	-10.7262
▁Hep	-10.7266
▁tüketimi	-10.7267
landırma	-10.7275
▁elleri	-10.7276
▁masraf	-10.7281
▁....	-10.7285
▁duyduğum	-10.7289
▁koşullar	-10.7291
▁hayatları	-10.7294
▁benlik	-10.7295
▁başladığımda	-10.7295
▁Yıl	-10.7297
▁yapmakta	-10.7297
15	-10.7297
laştırma	-10.7299
▁gidin	-10.7302
▁istediğimi	-10.7302
▁taşır	-10.7306
▁Frank	-10.7307
▁örnekleri	-10.7311
▁tara	-10.7314
▁hatırlıyor	-10.7316
▁alması	-10.7317
masına	-10.732
▁jenerasyon	-10.7322
▁online	-10.7322
▁sekil	-10.7322
▁Eminim	-10.7324
▁tırman	-10.7327
J	-10.7329
▁dayanıyor	-10.7329
▁izledi	-10.733
▁çekip	-10.733
▁özür	-10.733
ilecek	-10.7332
▁etik	-10.7333
▁tasarımın	-10.7333
▁harcay	-10.7334
▁Doğal	-10.7334
▁anki	-10.7337
▁ekranda	-10.7341
▁etken	-10.7349
lidir	-10.7349
▁adeta	-10.735
▁matematikçi	-10.7351
▁kısme	-10.7351
▁tasarlamak	-10.7353
▁ortamı	-10.7354
▁göl	-10.7356
▁Tur	-10.7363
▁çözül	-10.7366
▁doğada	-10.7369
▁kullandım	-10.7372
▁roman	-10.7373
▁Üniversite	-10.7373
▁Bin	-10.7373
▁Ab	-10.7375
▁Asla	-10.7376
▁32	-10.7386
▁olasılık	-10.7391
▁insansız	-10.7391
fo	-10.7392
▁zorla	-10.7394
▁kimliği	-10.7394
▁taşımak	-10.7395
sizlik	-10.7395
▁kanı	-10.7396
▁sinek	-10.7398
▁hastalıkların	-10.74
saydı	-10.741
tta	-10.7411
▁işliyor	-10.7412
▁duyduğunuz	-10.7412
▁ciddiye	-10.7413
▁co	-10.7413
▁yaratıklar	-10.7415
▁tedavisi	-10.7419
▁ilan	-10.7421
▁elma	-10.7424
▁kararı	-10.7426
▁şurada	-10.7427
▁oldugu	-10.743
▁nota	-10.7431
▁yapabiliri	-10.7435
▁dönüştürme	-10.7436
▁duygular	-10.7438
▁Geçtiğimiz	-10.744
▁Süper	-10.744
▁sebze	-10.744
▁lazer	-10.744
▁öncü	-10.7442
▁DH	-10.7446
larıdır	-10.7446
▁cun	-10.7448
▁isterdi	-10.7451
▁ağaçları	-10.7452
▁mutsuz	-10.7453
▁bölgeleri	-10.7454
▁entegr	-10.7458
▁korkma	-10.7458
▁olayın	-10.7459
▁hattı	-10.7459
▁bekliyor	-10.7459
▁ulaştır	-10.746
▁kalbi	-10.7461
▁Birlikte	-10.7461
▁kaybediyor	-10.7463
labilir	-10.7465
ford	-10.7471
▁yetki	-10.7471
▁yaptığımı	-10.7472
amıyor	-10.7472
mıştık	-10.7473
▁yazan	-10.7476
▁olacağına	-10.7476
▁denklem	-10.7478
▁korunma	-10.7484
çu	-10.7487
▁pis	-10.7488
▁yürüyor	-10.7488
menin	-10.7491
▁yapmasını	-10.7495
▁içeriği	-10.7497
▁sevme	-10.75
ayet	-10.7502
▁harca	-10.7503
▁boyut	-10.7508
▁olmayabilir	-10.7513
▁çevirme	-10.7517
▁umudu	-10.7519
▁Bur	-10.752
▁to	-10.7522
▁çeviri	-10.7522
▁Jim	-10.7523
▁çalışacak	-10.7524
▁saati	-10.7525
▁yapmıştı	-10.7529
▁ölç	-10.7537
▁isteği	-10.7537
cılık	-10.7538
▁kuruluşları	-10.7541
▁ini	-10.7542
▁damla	-10.7542
▁Pe	-10.7543
▁hastası	-10.7547
mayın	-10.755
▁sezgi	-10.7555
emezsiniz	-10.7556
▁danışman	-10.7558
▁kalırsa	-10.7558
▁akademi	-10.7559
▁yepyeni	-10.7559
▁portre	-10.7559
▁insandan	-10.7559
▁kemiği	-10.7559
▁vesaire	-10.7559
▁yangın	-10.7559
▁aktivist	-10.7563
▁don	-10.7563
▁kazanç	-10.7564
▁yazdığı	-10.7565
ron	-10.7577
▁organizmalar	-10.7581
▁Devlet	-10.7582
▁alabilirsiniz	-10.7582
▁düşünmüştü	-10.7582
▁verip	-10.7584
▁Dünyayı	-10.7586
dirler	-10.7588
▁gazı	-10.7588
ğü	-10.7589
▁ödülü	-10.7589
▁Ocak	-10.7591
▁aramaya	-10.7595
▁zehirli	-10.7601
▁anlaşıl	-10.7603
▁aramak	-10.7611
lme	-10.7613
▁2.	-10.7617
▁yatıyor	-10.7622
▁başlık	-10.7627
▁böcekler	-10.7627
▁hissediyor	-10.7628
▁bul	-10.7628
▁metafor	-10.7628
▁Şehir	-10.763
düm	-10.7632
▁tiyatro	-10.7633
▁stüdyo	-10.7634
▁kaplı	-10.7634
▁güçlendir	-10.7641
▁davranışlar	-10.7643
nızdan	-10.7649
▁geçecek	-10.7653
▁çekimi	-10.7654
▁profesör	-10.7655
▁yansıt	-10.7656
▁keyif	-10.7656
▁boşluğu	-10.7662
▁tarihin	-10.7665
sındaki	-10.7669
▁Yunan	-10.7676
▁oradaydı	-10.7677
▁Uluslararas	-10.7679
▁figür	-10.7679
▁nazik	-10.768
▁ayırt	-10.7682
mışlardı	-10.7685
▁etmeliyiz	-10.7685
▁düşünürken	-10.7688
tığımız	-10.7692
▁Kalp	-10.7692
▁alırsınız	-10.7693
▁once	-10.7693
▁hatırlayın	-10.7694
▁Hareket	-10.77
▁inek	-10.7704
▁alındı	-10.7708
▁koydu	-10.7712
▁minik	-10.7713
▁geçirdik	-10.7716
▁0	-10.7716
▁temas	-10.7716
▁verdikleri	-10.7717
▁Gerçekte	-10.7717
▁maliyetli	-10.7717
▁Col	-10.7724
▁oluşturduğu	-10.7737
▁gönderdi	-10.7742
▁yazılı	-10.7742
▁yaşamaya	-10.7746
▁götür	-10.7747
▁sonuçlarını	-10.7748
▁duyguları	-10.7749
▁anlamamız	-10.7754
▁şarkısı	-10.7756
▁At	-10.7762
▁öğrendi	-10.7762
▁tü	-10.7763
▁bölümünde	-10.7765
▁Halk	-10.7765
don	-10.777
▁geliş	-10.7772
▁bebeğin	-10.7773
▁beyinde	-10.778
▁elinizde	-10.7782
▁yaşadı	-10.7783
▁sevdiği	-10.7784
▁felsefe	-10.7786
▁Tanı	-10.7788
gel	-10.7791
▁Ö	-10.7791
▁birisini	-10.7796
lıyorlar	-10.7799
▁hüküm	-10.78
▁ekstra	-10.7801
▁şebeke	-10.7801
▁torba	-10.7801
▁gerektirir	-10.7801
▁kaygı	-10.7801
▁havalı	-10.7801
▁ulaşılabilir	-10.7802
▁gerektiren	-10.7802
▁1950	-10.7802
▁2011	-10.7802
▁MR	-10.7803
▁dikey	-10.7803
▁alkış	-10.7805
▁vücudun	-10.7805
▁2005	-10.7806
▁250	-10.7811
emeyiz	-10.7814
▁Rio	-10.7818
▁baktığımda	-10.7819
▁öğrenebilir	-10.7822
▁hızlandır	-10.7825
▁programlama	-10.7827
▁Gar	-10.783
▁yanımda	-10.783
▁öner	-10.7832
mekten	-10.7834
▁kimi	-10.7838
▁geçmişi	-10.7844
irler	-10.7844
gram	-10.7849
uru	-10.7854
▁yapılır	-10.7856
▁yaratmaya	-10.7856
▁etmekte	-10.7861
▁çıkaran	-10.7863
▁özü	-10.7863
▁çağında	-10.7866
▁edebilmek	-10.787
▁alanını	-10.7877
meleri	-10.7877
▁listesi	-10.7878
rey	-10.7881
▁ndan	-10.7884
▁yolcu	-10.7885
▁karşılaştırma	-10.7885
▁atmosferi	-10.7886
▁bat	-10.7886
▁ekonominin	-10.7887
leyebilir	-10.7895
▁İn	-10.7896
ğiniz	-10.7902
▁vermesi	-10.7904
leyip	-10.7904
▁güçleri	-10.7905
▁devletin	-10.7905
▁Dikkat	-10.7914
▁gerekecek	-10.7917
▁travma	-10.7923
▁belediye	-10.7925
▁ısrar	-10.7925
▁kapsamlı	-10.7925
▁sevimli	-10.7925
▁Kutbu	-10.7925
▁Modern	-10.7925
▁Önümüzde	-10.7925
▁optik	-10.7925
▁destekleyen	-10.7927
▁tekniği	-10.7927
▁kurumsal	-10.7927
▁birçoğu	-10.7928
▁sag	-10.7928
▁temeli	-10.7928
▁bacak	-10.7928
ebildi	-10.7929
▁kentsel	-10.7929
▁yayılan	-10.793
▁yaşlarında	-10.793
▁kendiliğinden	-10.7931
▁perde	-10.7932
▁eti	-10.7932
▁girmek	-10.7934
iriz	-10.7934
▁türlerin	-10.7935
▁duyduğu	-10.7936
▁aptalca	-10.7936
▁elektron	-10.7939
▁olmalısınız	-10.7943
▁cihazları	-10.7943
▁farklılıklar	-10.7944
▁harcadı	-10.7945
▁girdim	-10.7948
▁hakikat	-10.7953
▁bahsetti	-10.7954
▁Ye	-10.7959
▁No	-10.7961
▁türün	-10.7961
▁inanan	-10.7961
▁yatır	-10.7964
▁ağırlık	-10.7966
▁okyanusta	-10.7966
▁hayati	-10.7968
▁yaşadım	-10.7969
▁Üste	-10.7969
▁hatırlar	-10.797
▁Veri	-10.7971
▁Ju	-10.7973
▁yukarıda	-10.7973
▁kurar	-10.7974
▁iskelet	-10.7974
▁çıkardık	-10.7985
lendiği	-10.7986
▁istiyordu	-10.7992
▁birbirini	-10.7997
▁dışarıya	-10.7997
▁Tu	-10.7997
▁gitmiş	-10.7999
▁bozuk	-10.8001
▁izleyici	-10.8006
▁tel	-10.8007
düğü	-10.8009
acaksınız	-10.8009
▁hayatımız	-10.8013
ürekli	-10.8014
▁ölçüm	-10.8014
▁Can	-10.8021
▁götürüyor	-10.8024
30	-10.8025
ırsanız	-10.8026
▁hatırlama	-10.8028
▁istemiyor	-10.8031
▁nı	-10.8032
▁endişelen	-10.8035
işi	-10.8035
▁sokakta	-10.8038
▁konuşmaları	-10.804
▁adapt	-10.8042
▁haklarını	-10.8043
dığımızda	-10.8043
▁sade	-10.8044
▁aşamada	-10.8044
▁otomobil	-10.805
BI	-10.805
▁inovasyon	-10.805
▁Fizik	-10.805
▁Kanser	-10.8051
▁arkadaşlar	-10.8052
▁şekiller	-10.8056
▁Ter	-10.8056
▁yaşanan	-10.8057
▁kapak	-10.8059
▁enerjinin	-10.8063
▁doğası	-10.8064
▁olacağım	-10.8065
▁kullanıyorum	-10.8068
▁ağacın	-10.8069
▁düşündüğü	-10.8074
▁araştırmaya	-10.8074
ğünü	-10.8079
▁gördüğümde	-10.8079
▁Sha	-10.808
▁kapasitesi	-10.8081
▁muz	-10.8083
▁ham	-10.8085
▁başladığım	-10.8086
▁seçeneği	-10.8087
▁bittiğini	-10.8089
▁çıktım	-10.8091
▁fizikçi	-10.8092
▁yaparsak	-10.8094
▁Okyanus	-10.8095
▁biriktir	-10.8097
arı	-10.8097
dırlar	-10.8098
▁edildiği	-10.8107
▁hastanede	-10.8117
▁gay	-10.812
▁anladık	-10.8126
▁yüzme	-10.8126
▁Mor	-10.813
▁içlerinde	-10.8132
▁filtre	-10.8136
▁çocuklarını	-10.8144
▁Hayd	-10.8147
▁donanım	-10.8147
▁yüzeyi	-10.8147
▁insanla	-10.8153
▁hesab	-10.8154
▁hayl	-10.8157
▁bastır	-10.8161
▁Kat	-10.8161
lanmıştı	-10.8164
▁birbirlerini	-10.8164
▁yararlan	-10.8166
lerimden	-10.8167
▁oluşturu	-10.8171
▁yoksun	-10.8171
▁uygulamalar	-10.8173
▁avantaj	-10.8174
▁Californi	-10.8176
▁enstrüman	-10.8176
▁Enerji	-10.8176
▁Haiti	-10.8176
▁tören	-10.8176
▁Nobel	-10.8176
▁yetecek	-10.8176
▁CEO	-10.8177
▁pozisyon	-10.8177
▁trans	-10.8178
▁düşünürsek	-10.8178
▁gezegenler	-10.8179
▁sayılar	-10.818
▁Bob	-10.8181
▁diyebilirsiniz	-10.8183
▁Mü	-10.8188
gün	-10.8189
▁bakıyorum	-10.819
▁duyan	-10.819
zun	-10.819
▁ayrılma	-10.8191
sıydı	-10.8192
▁fikrine	-10.8193
▁hayatında	-10.8203
▁Derek	-10.8204
▁kuralı	-10.8204
▁birbirimiz	-10.8209
▁sonun	-10.8209
▁akışı	-10.821
tmak	-10.8212
▁dakikalık	-10.8214
▁Pro	-10.8216
▁grupları	-10.8218
▁olayları	-10.8224
▁anlatan	-10.8227
▁uzayda	-10.8236
▁durumunu	-10.8241
▁kalktı	-10.8248
eceğine	-10.8252
▁kutlama	-10.8254
▁gez	-10.8254
▁cerrahi	-10.8257
▁ilgileniyor	-10.8263
▁fiyatı	-10.8268
zo	-10.8277
▁cihazlar	-10.8284
▁hastaları	-10.8284
▁liderleri	-10.8284
hattan	-10.8286
▁giysi	-10.8293
▁görünüş	-10.8294
▁toplumlar	-10.8297
luğun	-10.8298
lediği	-10.83
▁gidiyordu	-10.83
▁başlamış	-10.83
▁düşünmeyi	-10.8302
▁benimse	-10.8303
luğ	-10.8304
▁Kültür	-10.8304
▁Muhteşem	-10.8304
▁maddi	-10.8304
▁Yahudi	-10.8304
▁dönüştürmek	-10.8305
▁Robert	-10.8305
▁maske	-10.8305
▁Devam	-10.8305
▁rica	-10.8305
▁beton	-10.8307
▁sitesi	-10.8309
▁kusursuz	-10.8309
▁bırakıp	-10.831
▁tümüyle	-10.8312
▁arasından	-10.8314
▁sembol	-10.8317
▁neydi	-10.8317
▁anlıyorum	-10.8319
oo	-10.8321
▁nedenini	-10.8325
▁resmini	-10.8327
ydık	-10.8332
▁herşeyin	-10.8335
▁ülkeyi	-10.8339
▁keşfettim	-10.8342
▁sigorta	-10.8342
▁tas	-10.8342
▁rakamlar	-10.8345
▁attı	-10.8348
▁çıkarır	-10.8351
▁Orman	-10.8352
▁finanse	-10.8354
▁ağız	-10.8354
▁yapmadı	-10.8356
▁tanışma	-10.8361
▁süresi	-10.8362
▁yöntemleri	-10.8364
inizde	-10.8365
▁zorluklar	-10.8366
▁meraklı	-10.8372
▁kullanıldı	-10.8372
▁katılım	-10.8374
▁endüstrisi	-10.8374
▁vatandaş	-10.8375
▁kalmıştı	-10.8376
gı	-10.8377
▁lu	-10.8379
▁belirleme	-10.8381
mızla	-10.8382
▁görmüyor	-10.8383
sha	-10.8384
▁ağları	-10.8385
▁anlattığı	-10.8385
▁Sam	-10.8386
▁bağlıdır	-10.839
▁ediyordum	-10.8391
▁kutusu	-10.8393
▁Proje	-10.8398
caba	-10.8402
▁Av	-10.8402
BG	-10.8406
▁hayran	-10.8406
▁sinyalleri	-10.8408
▁değerini	-10.841
▁boy	-10.8415
▁yılan	-10.8416
▁has	-10.8419
laşmış	-10.8422
emeyecek	-10.8427
▁teleskop	-10.8428
▁göstermeye	-10.8428
▁poster	-10.843
▁ışıkları	-10.8432
▁kırılgan	-10.8434
▁mikroskop	-10.8435
▁kaybetmiş	-10.8437
▁2004	-10.8439
▁bakıyorsunuz	-10.8441
yarak	-10.8442
▁yayıldı	-10.8443
▁ülkeden	-10.8444
▁varsayım	-10.8446
mus	-10.8448
ğın	-10.8451
▁vur	-10.8452
▁bitkilerin	-10.8452
▁yarısında	-10.8456
▁195	-10.8456
▁çıkardığı	-10.8459
leştirmek	-10.8462
▁büyüklükte	-10.8463
▁düşünecek	-10.8464
▁dol	-10.8465
▁bacağı	-10.8466
▁öldürme	-10.8467
▁alanların	-10.8468
▁şekillendir	-10.8469
▁sıcaklığı	-10.8482
▁redded	-10.8484
▁anatomi	-10.849
org	-10.8493
▁öğretiyor	-10.8494
▁kolaylaştır	-10.8499
▁bağlaya	-10.8501
▁yollarla	-10.8503
▁yönden	-10.8504
ografi	-10.8505
▁molekülleri	-10.8507
ian	-10.8512
▁uğraşma	-10.8512
▁düşünceleri	-10.8515
▁nöronlar	-10.8518
▁tohum	-10.8518
▁yetiştirme	-10.8519
lıyorum	-10.8521
▁materyal	-10.8524
▁antik	-10.8525
▁Tim	-10.8531
mdeki	-10.8535
▁ileride	-10.8539
▁vermeyi	-10.8541
▁yakalanma	-10.8542
klarını	-10.8543
▁yüzeye	-10.8547
▁başlığı	-10.8552
ımıza	-10.8553
bin	-10.8553
▁hapse	-10.8565
▁Uganda	-10.8566
▁liberal	-10.8566
▁bilişsel	-10.8566
▁kuzen	-10.8566
▁Kırmızı	-10.8567
▁PM	-10.8569
▁adımı	-10.8569
▁düşünmüyorum	-10.8571
▁emekli	-10.8571
▁üretilen	-10.8574
▁teknolojilerin	-10.8577
▁ağırlığı	-10.8581
▁sürecinde	-10.8583
▁duyduk	-10.8586
▁topluluğun	-10.8587
▁bitti	-10.8588
▁foto	-10.8592
▁internetin	-10.8592
▁konuşmanın	-10.8595
▁yapıcı	-10.8595
▁duvara	-10.8595
▁bulan	-10.86
lıktan	-10.8602
lus	-10.8605
▁Ti	-10.8608
▁Bey	-10.8608
so	-10.8609
sunuzdur	-10.8614
▁çarpışma	-10.8616
▁sınırı	-10.8617
▁silahlı	-10.8619
▁benzediğini	-10.8619
▁Söz	-10.8619
▁gelişmeler	-10.8623
evi	-10.8628
▁şiddetin	-10.8629
▁dilim	-10.8629
▁yaramaz	-10.863
▁büyükanne	-10.8631
▁kule	-10.8634
▁aş	-10.8636
▁çarpı	-10.8636
▁sevgili	-10.8639
▁etmeden	-10.8639
▁kadını	-10.864
▁perspektif	-10.8642
▁kalması	-10.8643
▁istek	-10.8645
▁kelimesini	-10.8645
▁Hintli	-10.865
▁mısın	-10.8653
▁dikkatini	-10.8654
▁Fotoğraf	-10.8656
▁sözlük	-10.8665
eceksiniz	-10.8666
rest	-10.8667
▁tanık	-10.8667
▁kelimesi	-10.8671
▁durduru	-10.8676
▁genomu	-10.8677
▁gök	-10.8678
▁yaşayacak	-10.8678
▁açtığı	-10.8678
vo	-10.8683
▁iyiydi	-10.8683
▁kral	-10.8687
▁göründüğü	-10.8688
▁yaratacak	-10.8688
▁tasarlama	-10.8693
örü	-10.8693
▁sıkıştır	-10.8698
▁Street	-10.8699
▁dinozor	-10.8699
▁dizüstü	-10.87
ladığını	-10.87
▁Korku	-10.8701
▁birliği	-10.8701
▁ip	-10.8701
▁vadeli	-10.8702
▁canlılar	-10.8702
▁vb	-10.8703
▁esnasında	-10.8704
▁dayanarak	-10.8707
▁yenilenebilir	-10.8708
▁kazandır	-10.8708
▁kanıtı	-10.8712
▁düzeltme	-10.8712
▁yerlerinde	-10.8712
▁yolculuğ	-10.8716
▁sentez	-10.8717
▁bel	-10.8719
▁geliyoruz	-10.8719
▁atış	-10.872
▁tamamını	-10.872
▁ilaçların	-10.8733
▁dokusu	-10.8734
▁hastaneye	-10.8735
▁öğrencilerim	-10.8737
▁katil	-10.8742
▁başlarında	-10.8745
▁Ken	-10.8747
▁öğretmek	-10.8747
ers	-10.8753
▁trend	-10.8755
üz	-10.8758
▁şehrinde	-10.8763
▁yaparsa	-10.8763
▁Ol	-10.8766
▁diğerlerinin	-10.8769
▁çay	-10.8771
▁şeffaf	-10.8773
▁kabiliyeti	-10.8773
▁düşünüyorlar	-10.8774
▁fırsatlar	-10.8774
▁yetişkinler	-10.8776
▁okumaya	-10.8777
▁ölür	-10.8779
▁yıldızların	-10.878
▁günümüz	-10.8781
ğına	-10.8782
emiyor	-10.8783
▁uygulamaya	-10.8785
dığımı	-10.8787
▁ayakları	-10.8788
▁gözlerini	-10.8794
▁iyice	-10.8797
▁denedik	-10.8798
▁sınıfı	-10.8798
▁başladığını	-10.8799
▁Sistem	-10.8799
▁bildirim	-10.8799
▁terim	-10.8801
ümü	-10.8802
▁davranışlarını	-10.8803
▁bot	-10.8808
▁yaşadıkları	-10.8812
▁bireylerin	-10.8812
wi	-10.8823
▁koruy	-10.8825
▁davranışları	-10.8827
▁otorite	-10.8827
▁prensip	-10.8828
▁Arka	-10.8828
▁yöntemler	-10.8828
ılmıştı	-10.883
▁ulaştı	-10.8834
▁konser	-10.8834
▁çocuklarının	-10.8834
▁koridor	-10.8834
▁çubuk	-10.8834
▁196	-10.8835
ydik	-10.8835
▁Noel	-10.8836
▁fotoğrafını	-10.8839
▁yapabilirler	-10.884
▁güce	-10.8841
▁çıkarak	-10.8844
▁Con	-10.8845
▁almaz	-10.8846
▁tarihsel	-10.8848
▁lideri	-10.8849
▁şair	-10.8849
bel	-10.8853
▁Olay	-10.8853
▁çevreye	-10.8858
▁geceleri	-10.8858
▁sunduğu	-10.886
▁kültürün	-10.8864
▁giren	-10.8867
▁seslerini	-10.8874
▁konuştu	-10.8878
▁yapış	-10.8878
▁çizgiler	-10.8886
▁virüsü	-10.8888
▁başarısızlık	-10.8891
▁dönüştür	-10.8892
▁aşamasında	-10.8894
ıldığını	-10.8896
▁çalışmasını	-10.89
▁fikr	-10.8901
▁bilinci	-10.8903
▁dönüştürül	-10.8903
▁Er	-10.8903
mun	-10.8911
▁dönüşüyor	-10.8913
▁zordu	-10.8914
▁tekerlek	-10.8915
▁odası	-10.8916
▁kitapta	-10.892
▁söyleyin	-10.892
vu	-10.8922
▁somut	-10.8923
▁Sev	-10.8929
▁izle	-10.8932
▁çıktığında	-10.8932
▁yapamayacağı	-10.8933
▁bulamadı	-10.8933
▁cevaplar	-10.8934
▁müdür	-10.8935
▁başladığımız	-10.8936
yer	-10.8942
▁felci	-10.8944
ınızda	-10.8948
▁anlamsız	-10.8949
▁getirmeye	-10.895
▁geçtiği	-10.8953
▁kom	-10.8954
▁düğme	-10.8954
▁kullandıkları	-10.8956
▁bez	-10.8956
▁dünyadan	-10.8957
▁Der	-10.8957
▁çıktığını	-10.8958
▁renkler	-10.8958
▁istediklerini	-10.8959
▁favori	-10.8968
▁uğraşıyor	-10.8971
▁Problem	-10.8971
▁motive	-10.8971
▁referans	-10.8971
▁ressam	-10.8971
▁Bakanlığı	-10.8971
▁Whit	-10.8971
▁taşıyıcı	-10.8972
▁metro	-10.8972
▁eşitsizlik	-10.8972
▁194	-10.8973
▁kuyruklu	-10.8974
▁çözümün	-10.8975
▁Yerel	-10.8975
▁oynayan	-10.8979
▁anlatı	-10.8982
▁satır	-10.8986
▁kardeş	-10.8987
▁yüzeyinde	-10.8987
▁kaldırı	-10.8993
▁sormaya	-10.8994
▁bağlantıları	-10.8997
▁rota	-10.9001
▁dönük	-10.9003
▁karmaşıklığı	-10.9004
▁sebepten	-10.9007
▁geçmişe	-10.9011
▁yaşadık	-10.9013
▁ilgiliydi	-10.9013
▁yapmaktan	-10.9014
▁Tarih	-10.9014
sch	-10.9016
▁Erkek	-10.9017
mazlar	-10.9017
▁elektro	-10.9019
▁uyu	-10.902
▁Oysa	-10.9022
▁önyargı	-10.9022
▁Yoks	-10.9025
▁biliyorduk	-10.9025
larımızla	-10.9029
▁ilaçları	-10.9029
▁yaratabilir	-10.903
▁koş	-10.9031
ladığımız	-10.9032
▁dar	-10.9033
▁gideli	-10.9034
▁diyen	-10.9035
▁yazmaya	-10.9036
▁desteklemek	-10.9036
▁sorduğum	-10.9036
riye	-10.9039
▁gidiyorlar	-10.9042
▁Mal	-10.9042
▁miktarını	-10.9049
▁köşesinde	-10.9053
▁verilerin	-10.9055
▁eşya	-10.9056
▁olmasaydı	-10.9059
laşıyor	-10.9059
▁birbirimizi	-10.9064
▁pro	-10.9067
ılıp	-10.9067
▁karşıtı	-10.9074
▁etmedi	-10.9075
▁hızda	-10.9077
▁eleştiri	-10.9078
▁çıkmaya	-10.9079
cik	-10.9079
▁topluluklar	-10.9079
▁okuyor	-10.9081
▁İtalya	-10.9081
▁şiddeti	-10.9083
▁ilgimi	-10.909
kür	-10.9091
leşen	-10.9094
▁kısıtlı	-10.9097
▁değiştiğini	-10.9098
▁sinyali	-10.9099
ili	-10.91
▁kul	-10.9101
▁uçurum	-10.9103
▁uzaya	-10.9103
▁bölgeler	-10.9105
▁incelemek	-10.9107
▁kuyruk	-10.9107
▁takma	-10.9108
▁olağan	-10.911
▁GSY	-10.911
▁cidden	-10.911
▁enteresan	-10.911
▁uğultu	-10.911
▁çukur	-10.911
▁şehre	-10.911
▁partner	-10.911
▁piyano	-10.911
▁Ebola	-10.911
▁Hâl	-10.911
▁fırın	-10.911
▁sopa	-10.911
▁transfer	-10.9111
▁Yardım	-10.9111
▁kuram	-10.9112
▁Kongo	-10.9113
▁Deney	-10.9113
▁severim	-10.9114
▁işgal	-10.9115
▁çocukluk	-10.9117
▁Merak	-10.9117
▁dışın	-10.9118
▁yerdir	-10.9122
▁yuvarlak	-10.9122
▁haritasını	-10.9122
▁asit	-10.9123
▁şartları	-10.9124
▁tepesinde	-10.9124
▁aynısını	-10.9128
▁gereksiz	-10.913
yıllardır	-10.9131
▁keşfetti	-10.9131
▁söylenen	-10.9132
▁becer	-10.9134
▁giderse	-10.9138
lduğu	-10.9138
sızlık	-10.9142
▁sinema	-10.9145
▁genleri	-10.9146
▁projede	-10.9146
▁ölümü	-10.9147
▁MS	-10.915
▁dünyamızı	-10.9151
▁üretir	-10.9152
▁dağıtım	-10.9159
▁aradı	-10.916
▁miras	-10.9162
▁motoru	-10.9162
▁ürünün	-10.9164
▁alıyordu	-10.9165
▁yoğunluğu	-10.9165
▁okulun	-10.9165
▁çaresiz	-10.9166
▁böceği	-10.9167
▁ekipman	-10.9173
▁fonksiyon	-10.9177
▁bü	-10.9178
▁göndermek	-10.9178
▁yaradı	-10.9179
▁insanlarda	-10.9188
▁riskli	-10.9188
▁gor	-10.919
▁parçalarını	-10.9191
▁balıkçı	-10.9192
abilecekleri	-10.9192
▁koşulları	-10.9193
▁çalışacağım	-10.9198
▁Sonraki	-10.92
nuzda	-10.92
▁ümit	-10.9206
ari	-10.9207
▁verilere	-10.9208
▁bekley	-10.921
▁yayım	-10.9211
▁arabayı	-10.9212
▁kurul	-10.9216
▁böcekleri	-10.9217
▁yenilikler	-10.9217
▁ürettiği	-10.9218
▁kısmına	-10.9218
▁ilgilenme	-10.922
▁eğitimin	-10.9223
▁Özel	-10.9223
▁ikincisi	-10.9223
▁besle	-10.9227
▁Güven	-10.923
▁bildikleri	-10.9234
▁sorunumuz	-10.9235
▁Aslın	-10.9236
▁26	-10.9238
▁fotoğraflarını	-10.9239
▁bizleri	-10.924
▁gerekmiyor	-10.9243
▁parmağı	-10.9243
▁mühendisler	-10.9247
▁yürüt	-10.925
▁birşeyi	-10.925
▁dramatik	-10.9251
▁reaksiyon	-10.9251
▁reçete	-10.9251
▁şapka	-10.9251
▁ödün	-10.9251
▁nöroloji	-10.9251
▁Geleneksel	-10.9251
▁süresince	-10.9252
▁göreceğiniz	-10.9252
▁söyleyeyim	-10.9253
▁kış	-10.9253
▁yatağı	-10.9255
▁omuz	-10.9256
▁bakımından	-10.9257
▁eğitimli	-10.9257
▁basamak	-10.9259
▁başlayıp	-10.9259
▁tasarla	-10.926
▁adama	-10.9261
▁sanatın	-10.9264
▁eşitlik	-10.9266
▁öyleyse	-10.9267
▁azı	-10.9269
▁Güvenlik	-10.9272
▁100.000	-10.9273
▁ajan	-10.9276
ecekler	-10.9276
▁araştırmaları	-10.9276
▁ger	-10.9276
▁Bankası	-10.9278
▁Tak	-10.928
▁hükümetin	-10.928
▁gerçekleştirmek	-10.9281
▁akıllıca	-10.9282
▁bilinir	-10.9283
▁akışını	-10.9283
▁okuduğum	-10.9284
▁birimi	-10.9286
▁güncel	-10.9288
▁bozulma	-10.9288
▁yükle	-10.9289
lalım	-10.9291
▁düşünmeniz	-10.9292
▁çiftçiler	-10.9292
▁konuştum	-10.9293
▁mor	-10.9296
▁du	-10.9297
leridir	-10.9298
rsak	-10.9299
▁aranızda	-10.93
▁buzun	-10.9303
▁Niye	-10.9304
▁kayıtları	-10.9305
▁yapıldığı	-10.9306
ınıza	-10.9314
▁Yaşa	-10.9317
▁geçin	-10.9319
muzun	-10.9323
▁düşünmüyor	-10.9323
▁resmin	-10.9325
ander	-10.9325
▁Gand	-10.9332
▁bozukluğu	-10.9334
▁kanal	-10.9336
abileceğiniz	-10.9336
▁doları	-10.9336
▁duvarı	-10.9337
▁Krallık	-10.9341
eşke	-10.9346
▁fotoğrafta	-10.9349
▁azaltmak	-10.9349
▁tüketim	-10.935
▁üretici	-10.9353
▁Müzesi	-10.9355
▁olasılıkla	-10.9355
çiler	-10.9356
▁şartlar	-10.936
▁hayatınızı	-10.9363
▁ağaçların	-10.9366
▁etkileme	-10.9367
▁keşfi	-10.937
▁etkilerini	-10.9371
▁geliri	-10.9374
▁ilişkisi	-10.9375
▁sığ	-10.9377
▁içimizde	-10.9378
▁durmak	-10.938
sün	-10.9381
▁çarp	-10.9385
▁Dış	-10.9387
▁buluşma	-10.9391
▁Matematik	-10.9394
▁Britanya	-10.9394
▁Chicago	-10.9394
▁gecekondu	-10.9394
▁helikopter	-10.9394
▁hitap	-10.9394
▁negatif	-10.9394
▁tahrip	-10.9394
▁şablon	-10.9394
▁acımasız	-10.9394
▁Biyoloji	-10.9394
▁kirli	-10.9394
▁aşina	-10.9394
▁kumanda	-10.9394
▁terörizm	-10.9395
eceğimiz	-10.9397
ğinde	-10.9399
▁kova	-10.94
▁uğraşan	-10.9403
▁verirseniz	-10.9404
▁Tıp	-10.9408
▁ilgilenen	-10.9409
▁çare	-10.9409
▁bırakır	-10.9409
▁sorunların	-10.9411
bay	-10.9414
▁varken	-10.9417
ildiği	-10.9419
▁yakalama	-10.942
▁yunus	-10.9421
▁geçiren	-10.9424
▁kanserin	-10.9425
▁öldür	-10.9428
▁laboratuvarda	-10.943
jen	-10.9431
cıları	-10.9431
▁uzmanları	-10.9431
▁unut	-10.9431
▁alıyorum	-10.9432
▁120	-10.9434
var	-10.9438
▁aralarında	-10.9438
leşir	-10.9438
▁araştırmacılar	-10.9442
▁yak	-10.9444
▁konuşmamı	-10.9447
digim	-10.9447
▁kanat	-10.9448
▁artı	-10.9449
▁dusun	-10.9449
▁kullanılması	-10.945
mişlerdi	-10.9452
▁koşul	-10.9452
▁kavrama	-10.9452
▁annemin	-10.9452
▁korumaya	-10.9454
▁bağlantısı	-10.9456
mışlar	-10.9457
▁odak	-10.9458
▁konusundaki	-10.9461
▁mo	-10.9462
▁halini	-10.9467
▁aralık	-10.9471
▁faydası	-10.9474
▁istemem	-10.9476
ps	-10.9479
▁evrimin	-10.948
▁yapmama	-10.9482
▁oranını	-10.9483
inize	-10.9483
▁İnanıyoru	-10.9484
▁Üzerinde	-10.9489
lıkları	-10.9491
▁dersleri	-10.9491
▁hepimizi	-10.9491
▁korkusu	-10.9492
▁yarışı	-10.9494
▁Yedi	-10.9495
▁adlandırıla	-10.9497
▁bahsettiği	-10.9498
leştiren	-10.9499
▁usta	-10.9502
▁düşünceler	-10.9503
▁sunma	-10.9504
▁içeride	-10.9511
▁koştu	-10.9511
▁yapıları	-10.9512
▁anla	-10.9516
▁kira	-10.9517
▁yüze	-10.9522
medi	-10.9523
▁Mutlu	-10.9524
▁karıncalar	-10.9526
▁kelimeleri	-10.9528
▁bacakları	-10.9528
umun	-10.9531
▁olayların	-10.9535
▁diyalog	-10.9539
▁kahverengi	-10.9539
▁pirinç	-10.9539
▁Sahip	-10.9539
▁Silikon	-10.9539
▁Smith	-10.9539
▁mevsim	-10.9539
▁yıkıcı	-10.9539
▁paralel	-10.9539
▁Evrim	-10.9539
▁Mikro	-10.9539
▁görünmüyor	-10.9539
▁Işık	-10.9541
▁müziğin	-10.9543
▁Gana	-10.9543
▁işlevsel	-10.9544
▁Saat	-10.9545
▁pil	-10.9547
▁sesin	-10.9547
muzda	-10.955
▁süt	-10.9552
leyin	-10.9554
üşü	-10.9555
▁seçer	-10.9556
▁bazılarınız	-10.9557
▁elin	-10.9557
▁konuşmacı	-10.9557
▁politikacılar	-10.9558
lamıyor	-10.956
▁etmeli	-10.9563
▁etkinlik	-10.9564
▁önemini	-10.9565
başı	-10.9565
▁duman	-10.9565
▁hepinizi	-10.9568
▁verdiğini	-10.9568
▁vücudunu	-10.9569
▁okullar	-10.9569
kat	-10.9571
giz	-10.9571
▁bilgisayarı	-10.9572
▁bardak	-10.9577
▁görebil	-10.9578
▁pişirme	-10.958
▁kullanılma	-10.9581
▁koru	-10.9582
▁alanlarında	-10.9583
▁akla	-10.9583
▁zorundadır	-10.9584
▁düşündüğünüzde	-10.9586
▁beraberinde	-10.9589
▁sebebiyle	-10.9594
▁kolaylık	-10.9599
▁fikrimiz	-10.9602
▁ez	-10.9603
▁yönetici	-10.9605
▁yıka	-10.9608
▁hedefi	-10.9608
▁vardım	-10.9608
meniz	-10.9611
▁karşılaştığımız	-10.9615
▁Mac	-10.9616
▁bazılarının	-10.9618
▁başardı	-10.9619
▁olmasıydı	-10.9621
▁yaşamını	-10.9622
▁finans	-10.9625
yl	-10.9625
▁sınav	-10.9625
▁Ham	-10.9626
▁kesi	-10.9627
▁öncülü	-10.9628
▁götürme	-10.9629
▁dükkan	-10.9631
▁Var	-10.9634
▁inceliyor	-10.9636
▁sağa	-10.964
▁sesle	-10.9643
▁hükümetler	-10.9645
abileceğim	-10.9647
▁olmalarını	-10.9649
ans	-10.9655
▁Wall	-10.9658
▁gezegeni	-10.966
▁düğüm	-10.9674
▁Masa	-10.968
▁sınırlar	-10.9681
likler	-10.9686
▁Scott	-10.9686
▁emniyet	-10.9686
▁karaciğer	-10.9686
▁kalori	-10.9686
▁pound	-10.9686
▁gerektiriyor	-10.9686
▁maalesef	-10.9687
▁Makine	-10.9687
▁kalkıp	-10.9688
▁siber	-10.9689
▁basınç	-10.9689
▁esinlen	-10.969
▁çamur	-10.9692
▁çalışıp	-10.9693
▁tutkulu	-10.9695
▁bela	-10.9695
▁arabası	-10.9695
meyeceğini	-10.9695
▁aydınlat	-10.9697
▁robotik	-10.9698
▁hat	-10.9706
▁Min	-10.9707
▁farkındalık	-10.9709
▁toplamak	-10.971
cal	-10.9711
▁isterler	-10.9713
▁deneyimler	-10.9717
▁içten	-10.9718
ebileceğimizi	-10.972
▁Hepsini	-10.9727
▁dedikleri	-10.973
landığını	-10.9732
▁fikirlerini	-10.9732
▁bağlamda	-10.9732
▁formu	-10.9738
▁denemek	-10.9742
▁yiyeceği	-10.9742
▁yönlendirme	-10.9743
▁donmuş	-10.9743
liydim	-10.9747
▁koltuğu	-10.9749
▁sent	-10.9751
▁sevin	-10.9754
▁zorundaydım	-10.9755
▁doz	-10.9755
▁Aşağı	-10.9759
▁organları	-10.976
▁inanı	-10.976
▁küreselleşme	-10.9764
▁fiil	-10.9766
▁Herşey	-10.9766
larak	-10.9768
istan	-10.9768
▁yüzleş	-10.9772
▁yansı	-10.9774
▁tarafına	-10.9776
maktan	-10.9782
▁olabil	-10.9784
▁Sayı	-10.9785
▁kullanmıyor	-10.9786
▁dinliyor	-10.9787
BC	-10.9788
▁akraba	-10.9788
▁aynısı	-10.9788
▁hük	-10.9789
▁yayıl	-10.9791
▁aleti	-10.9793
▁28	-10.9793
▁ikisinin	-10.9796
▁değişme	-10.9797
▁Hükümet	-10.9799
▁kaynaklanıyor	-10.9804
▁uzaklaş	-10.9806
▁çıkmaz	-10.9806
▁kabuk	-10.9811
liğinden	-10.9819
▁kaldılar	-10.9819
▁eğilimi	-10.9823
▁bağlantılar	-10.9825
▁Kol	-10.9826
▁rehber	-10.9827
▁özelliklerini	-10.9829
▁Mart	-10.9831
▁yükselt	-10.9833
▁teknolojisini	-10.9833
▁görmeyi	-10.9833
▁bayanlar	-10.9834
▁fit	-10.9835
▁bıçak	-10.9835
▁prensibi	-10.9835
▁trajedi	-10.9835
▁çikolata	-10.9835
▁Stanford	-10.9835
▁retina	-10.9835
▁hormon	-10.9835
▁bencil	-10.9835
▁yurt	-10.9835
▁İzleyici	-10.9836
▁dağınık	-10.9836
▁cisim	-10.9836
▁ünite	-10.9836
▁Benzer	-10.9837
▁Genellikle	-10.9837
▁aletleri	-10.9839
▁2001	-10.9841
▁sanıyorum	-10.9841
▁yürüdü	-10.9841
▁Ortalama	-10.9842
▁antibiyotik	-10.9843
▁buluyorum	-10.9845
▁çöküş	-10.9846
▁işleyen	-10.9848
▁galeri	-10.985
dil	-10.9851
▁ederseniz	-10.9853
▁duruş	-10.9855
▁tarla	-10.9855
▁titreşim	-10.9857
▁deneysel	-10.9863
▁çalışanlar	-10.9863
▁mali	-10.9864
▁hastalığ	-10.9866
İH	-10.9866
▁kuruluş	-10.9868
▁yapmalı	-10.9869
▁yerleşim	-10.9873
▁Yemek	-10.9873
▁hareketin	-10.9875
▁zorlama	-10.9877
▁faktör	-10.9878
▁kaz	-10.9882
▁başlıyorlar	-10.9882
▁inci	-10.9883
▁sorgulama	-10.9883
▁derim	-10.9886
▁örnekte	-10.9886
▁diken	-10.9888
lıydı	-10.9891
art	-10.9894
▁etmekten	-10.9896
▁doğma	-10.9899
ny	-10.9908
▁alabiliyor	-10.9908
mamış	-10.9912
▁çevrede	-10.9914
▁gelmedi	-10.9916
▁yoğunlaş	-10.9917
▁özet	-10.9917
▁cömert	-10.9918
▁gezin	-10.9918
▁aksi	-10.9919
▁destekleme	-10.992
▁sü	-10.9921
▁33	-10.993
▁söylemişti	-10.9931
▁elinizi	-10.9933
▁Normal	-10.9933
▁geliştirdi	-10.9935
▁inanır	-10.9935
sti	-10.9939
▁kadına	-10.9941
yüz	-10.9946
▁kullanılır	-10.9947
▁sürecini	-10.9947
rip	-10.9948
▁alabil	-10.995
▁nerde	-10.9952
▁aslı	-10.9952
geçip	-10.9953
▁gittiğimiz	-10.9958
▁parası	-10.9959
▁gözler	-10.996
▁öldürdü	-10.9962
▁memeli	-10.9963
lıyordu	-10.9964
▁verilme	-10.9965
iydi	-10.997
▁kişilere	-10.997
▁seti	-10.997
▁tesis	-10.997
▁katılıyor	-10.9974
liyim	-10.998
▁yararı	-10.998
▁kazandığı	-10.9984
▁dilini	-10.9985
▁bizde	-10.9986
▁dinazor	-10.9987
▁İsviçre	-10.9987
▁kurbağa	-10.9987
▁paradigma	-10.9987
▁varoluş	-10.9987
▁çevrimiçi	-10.9987
▁hakkinda	-10.9987
▁mizah	-10.9987
▁vadi	-10.9988
▁direnci	-10.9988
▁Kapı	-10.9989
▁karşılığında	-10.9989
▁Ford	-10.999
▁ilacın	-10.9991
▁şüphesiz	-10.9991
▁yarayan	-10.9992
▁davranışsal	-10.9993
▁benzetme	-10.9998
▁taze	-10.9999
▁geçerken	-11.0001
larınızın	-11.0004
▁vuru	-11.0007
▁birbiri	-11.0008
▁Hayatta	-11.0009
▁ölçekli	-11.0009
▁hesabı	-11.0014
▁yardımıyla	-11.0015
▁döndük	-11.0017
▁aktör	-11.0018
▁bitirme	-11.0019
▁hızını	-11.0021
▁Lu	-11.0023
leştirilmesi	-11.0023
lemiş	-11.0023
▁görünme	-11.0024
▁iskeleti	-11.0025
▁kağıdı	-11.0027
▁makineleri	-11.0029
▁bölümünü	-11.003
▁ailenin	-11.0031
▁sessizlik	-11.0031
▁köyde	-11.0032
▁konuşması	-11.0033
▁azalıyor	-11.0039
▁aldığını	-11.004
▁ndaki	-11.0041
▁yaptığımızı	-11.0041
▁götürür	-11.0048
▁başladığında	-11.0052
▁Top	-11.0052
▁inceley	-11.0053
▁Pu	-11.0055
▁söylerdi	-11.0058
▁Don	-11.006
▁yapacağımız	-11.006
▁sisteminde	-11.0062
▁Öl	-11.0062
▁kaldırma	-11.0066
▁devletler	-11.0066
miyordu	-11.0067
▁hoşlanma	-11.0067
▁firması	-11.0072
▁formları	-11.0073
ırdı	-11.0074
▁kaybeder	-11.0076
▁uygulamaları	-11.0077
rsa	-11.0078
▁anlattım	-11.0082
▁95	-11.0083
▁programlar	-11.009
▁hikayem	-11.0091
▁sıradaki	-11.0091
ser	-11.0093
▁Öğrenciler	-11.0095
ığı	-11.0095
▁gezegenlerin	-11.0097
▁takılı	-11.0101
▁tadını	-11.0103
▁performansı	-11.0111
uel	-11.0112
▁diğerlerinden	-11.0115
▁dersler	-11.0115
▁dilin	-11.0122
▁açıklıyor	-11.0129
▁vermişti	-11.013
▁ormanın	-11.0132
▁yaratı	-11.0133
▁görecek	-11.0135
▁eşyaları	-11.0138
▁deneyimleri	-11.0138
▁seçimleri	-11.0139
▁uygulay	-11.014
▁Demokrasi	-11.014
▁Haziran	-11.014
▁aykırı	-11.014
▁eşcinsel	-11.014
▁rüşvet	-11.014
▁öbür	-11.014
▁Bölge	-11.014
▁güvercin	-11.014
▁zekâ	-11.0141
▁cinayet	-11.0141
▁zarif	-11.0141
▁sentetik	-11.0141
▁korsan	-11.0142
▁darbe	-11.0142
▁telif	-11.0142
▁sayılır	-11.0143
▁denizaltı	-11.0143
▁solucan	-11.0143
▁Hızlı	-11.0143
▁batarya	-11.0144
▁kaçak	-11.0146
▁Eric	-11.0146
▁sesli	-11.0146
▁başladığımızda	-11.0148
▁eser	-11.0153
▁Hal	-11.0153
▁ayni	-11.0156
▁açıldı	-11.0163
▁uçuyor	-11.0167
▁açıkladı	-11.0169
▁damar	-11.0171
rik	-11.0173
▁bulunmakta	-11.0173
▁kısıt	-11.0174
▁Çocukların	-11.0175
melisiniz	-11.0177
▁alırken	-11.0179
▁çalışmamız	-11.018
öz	-11.018
▁yerleştiril	-11.0182
▁toplay	-11.0183
▁Bazılarınız	-11.0187
anne	-11.0188
▁gemisi	-11.0189
▁odaklı	-11.0189
▁fenomen	-11.019
▁gerçekleşme	-11.019
▁çekilme	-11.0191
▁alırsa	-11.0196
▁aldıkları	-11.0197
▁genişleme	-11.0197
▁toplumların	-11.0197
▁biliniyor	-11.0197
▁yakalamak	-11.02
▁bilgisayarların	-11.0202
▁For	-11.0205
▁kopar	-11.0207
▁Ailem	-11.0209
▁Yu	-11.0216
▁uzmanlar	-11.0216
▁bağımlılık	-11.022
▁soyle	-11.0221
▁yılını	-11.0222
▁Gene	-11.0228
▁dalgaları	-11.0231
▁direnç	-11.0232
ıydı	-11.0233
▁duymuş	-11.0235
▁fena	-11.0239
▁canavar	-11.024
▁arayı	-11.024
▁görebilme	-11.0241
▁davranıyor	-11.0241
▁and	-11.0246
▁bölgenin	-11.0248
▁Suriye	-11.0248
▁kalkınma	-11.0252
▁renkleri	-11.0255
▁ekleme	-11.0259
▁yaratıcılığı	-11.026
▁alış	-11.0261
▁görevli	-11.0263
▁kalitesini	-11.0264
▁olacaksınız	-11.0266
▁sara	-11.0269
▁güzelliği	-11.0271
▁beyniniz	-11.0271
▁tamamiyl	-11.0272
▁katıldı	-11.0272
▁etkiledi	-11.0276
▁döngüsü	-11.0277
▁Pat	-11.0283
liğinin	-11.0289
▁hikayelerini	-11.029
▁konuştuğumuz	-11.0291
eceğimizi	-11.0292
amadığı	-11.0292
▁oluşum	-11.0293
▁varlık	-11.0295
▁sahi	-11.0296
ntarktik	-11.0297
▁tropik	-11.0297
▁çapta	-11.0297
▁onemli	-11.0297
▁banyo	-11.0297
▁irade	-11.0297
▁hiçbirşey	-11.0297
▁parazit	-11.0298
▁ilave	-11.03
ebilmesi	-11.0302
▁kaderi	-11.0302
▁fiyatları	-11.0305
▁düzine	-11.0305
▁pay	-11.0306
▁Ekim	-11.0307
▁dışkı	-11.0307
▁çeşidi	-11.0309
▁kurtulma	-11.031
▁gitmesi	-11.031
▁küp	-11.0314
▁programcı	-11.0316
▁İste	-11.0316
▁tasarlay	-11.032
▁Cas	-11.032
lacak	-11.0322
▁ardında	-11.0322
▁kendilerinin	-11.0325
▁akış	-11.0325
▁varlıklar	-11.0328
▁grub	-11.033
▁çürü	-11.0332
▁Doğrusu	-11.0335
▁dök	-11.034
▁bilgisi	-11.034
▁görülmemiş	-11.0341
▁ölecek	-11.0345
▁King	-11.0346
▁alkışlar	-11.0353
▁etmeleri	-11.0356
▁yeter	-11.036
▁bağlar	-11.0361
▁Şehirler	-11.0361
luyoruz	-11.0365
▁alınmış	-11.0365
▁tartışmalar	-11.0371
▁muyu	-11.0372
rmal	-11.0374
chi	-11.0376
▁Erkekler	-11.038
▁Yanı	-11.0382
▁binaların	-11.0392
▁dönüşür	-11.0395
▁yuzde	-11.0396
▁kül	-11.0405
▁müzisyen	-11.0405
▁işimi	-11.0406
▁tipi	-11.0411
▁uzaklıkta	-11.0412
▁gelmesini	-11.0415
▁olanların	-11.0416
▁anahtarı	-11.0417
▁kurt	-11.0418
▁hatırla	-11.0419
▁seyred	-11.042
▁calisma	-11.0421
şim	-11.0425
lenebilir	-11.0426
▁robotun	-11.0427
▁arz	-11.0428
dar	-11.0428
▁evlerin	-11.0428
▁Gülüşme	-11.0433
halde	-11.0434
▁hemşire	-11.0439
▁balıklar	-11.0443
▁karakteri	-11.045
▁Afgan	-11.0455
▁Florida	-11.0455
▁Mükemmel	-11.0455
▁Örnek	-11.0455
▁psikolog	-11.0455
▁çekirdek	-11.0455
▁kızgın	-11.0456
▁Yaşlı	-11.0456
▁Petrol	-11.0456
▁Sabah	-11.0456
▁kumaş	-11.0456
▁dövme	-11.0456
acağınız	-11.0457
▁şansımız	-11.0459
▁ertesi	-11.0459
▁hareketli	-11.0459
▁isyan	-11.0464
▁yıldızı	-11.0465
▁istemiyoruz	-11.0466
▁lüks	-11.0466
▁yankı	-11.0467
▁getirip	-11.0467
▁geliştirmeye	-11.0468
▁yolculuğu	-11.0474
▁götürmek	-11.0476
vin	-11.0477
▁cennet	-11.0478
▁basar	-11.0478
▁yöneten	-11.0481
▁Atlantik	-11.0481
▁maymunlar	-11.0482
▁tutarlı	-11.0482
▁yabani	-11.0482
mam	-11.0483
▁İsa	-11.0483
▁inkar	-11.0484
▁hani	-11.0485
emediği	-11.0487
▁reform	-11.0487
▁iyileştirme	-11.0489
▁Belli	-11.049
▁noktadan	-11.049
▁Okulu	-11.049
ebiliyoruz	-11.049
▁fo	-11.0492
▁üzeri	-11.0493
▁öldürmek	-11.0496
miyorlar	-11.0496
▁Medi	-11.0497
▁doların	-11.0499
▁nöro	-11.0499
▁Projesi	-11.05
▁kuramı	-11.0501
▁toprağı	-11.0503
▁kesme	-11.0504
▁zekice	-11.0507
▁süreli	-11.051
▁etmem	-11.0514
▁Mil	-11.0518
▁bio	-11.0519
▁onar	-11.052
ğımız	-11.0521
▁güneşin	-11.0525
▁konuları	-11.0526
▁rejim	-11.0528
▁sözleri	-11.0529
▁ormanları	-11.0532
▁kafasını	-11.0535
▁bıraktım	-11.0538
▁çektim	-11.0538
▁hatırladı	-11.0539
▁tabiki	-11.0542
rin	-11.0546
▁bulunduğunu	-11.0548
▁kolunu	-11.0552
▁olmasın	-11.0553
▁felç	-11.0553
▁söylemem	-11.0554
▁yazılımı	-11.0558
▁mezar	-11.0561
RB	-11.0562
▁geçtim	-11.0569
▁bahsettiğimiz	-11.057
▁patlaması	-11.0576
▁yaşımda	-11.0578
▁oluşmuş	-11.0579
▁işimiz	-11.0581
▁kucak	-11.0584
▁anlamında	-11.0585
▁anten	-11.0586
▁geldiğimde	-11.0587
▁medeniyet	-11.0592
▁kodu	-11.0596
▁sanıyor	-11.0598
ımızda	-11.06
mızdaki	-11.0601
▁uçağı	-11.0601
▁izler	-11.0603
ray	-11.0603
ındaki	-11.0603
▁başlattık	-11.0606
▁ilgisini	-11.0606
▁yapamıyor	-11.0609
▁kozm	-11.0611
▁yaban	-11.0616
▁Vietnam	-11.0617
▁Yanlış	-11.0617
▁feminist	-11.0617
▁paraşüt	-11.0617
▁sipariş	-11.0617
▁İspanya	-11.0617
▁Yavaş	-11.0617
▁acayip	-11.0617
▁ihlal	-11.0617
▁netice	-11.0618
▁eşitliği	-11.0618
▁Bilmiyorum	-11.062
zel	-11.062
▁desen	-11.0622
▁2003	-11.0623
▁alakası	-11.0623
▁Iste	-11.0623
ick	-11.0623
▁mıknatıs	-11.0625
▁yükselen	-11.0625
▁görebiliyorum	-11.0626
▁gözüken	-11.0628
▁teması	-11.0629
▁değiştirerek	-11.0631
▁çektik	-11.0631
▁bağı	-11.0632
▁moleküller	-11.0635
▁beynimiz	-11.0636
▁disiplin	-11.0636
▁yapıya	-11.064
bes	-11.0641
▁anlamını	-11.0642
lerimin	-11.0643
▁seçtik	-11.0645
▁hoca	-11.0647
acaklar	-11.0648
▁bulmaca	-11.0649
▁bağlan	-11.0651
▁dansçı	-11.0652
▁evlen	-11.0654
nizdeki	-11.0654
▁gercekte	-11.0655
digi	-11.0657
▁üniversitede	-11.0663
▁sizleri	-11.0663
▁metrelik	-11.0664
▁ölmüş	-11.0671
▁izi	-11.0671
▁bag	-11.0672
▁büyümeye	-11.0675
▁filmler	-11.0675
sınızdır	-11.0676
▁sorumluluğu	-11.0678
▁çağır	-11.0681
▁becerileri	-11.0681
▁kabin	-11.0683
▁aldatma	-11.0684
▁dolan	-11.0685
▁topluyor	-11.0689
▁kazanır	-11.069
ışını	-11.0691
etik	-11.0692
▁tanımlamak	-11.0693
▁uyuma	-11.0697
▁uğraştı	-11.0701
▁Bina	-11.0703
▁düşündüğümüzde	-11.0705
▁atan	-11.0705
▁çabu	-11.0706
▁inin	-11.0707
▁filmini	-11.0708
▁kaybettik	-11.071
▁mühendisi	-11.0712
▁söylüyordu	-11.0712
▁eğim	-11.0716
▁edildiğini	-11.0717
▁kullanımını	-11.0724
▁değin	-11.0724
▁düşündüğünüz	-11.0724
▁ömrü	-11.0725
▁korteks	-11.073
istik	-11.073
▁Günü	-11.0733
▁gun	-11.0734
▁ötesi	-11.0735
▁Yol	-11.0744
▁hatırlatıyor	-11.0744
▁filmde	-11.0747
▁odasında	-11.0749
old	-11.075
eğe	-11.075
▁kaybettiği	-11.0753
▁Gezegen	-11.0753
▁öden	-11.0756
▁öngör	-11.0757
bet	-11.0761
labilecek	-11.0764
▁oranla	-11.0764
▁Gö	-11.0766
▁Bush	-11.0767
lanıp	-11.077
▁hangisi	-11.0772
▁ulaşır	-11.0776
▁tanıştığım	-11.0779
▁örtü	-11.078
▁mürekkep	-11.0781
▁Arjantin	-11.0781
▁Dijital	-11.0781
▁Kontrol	-11.0781
▁enfekte	-11.0781
▁gitgide	-11.0781
▁interaktif	-11.0781
▁alıkoy	-11.0781
leştiriyor	-11.0781
▁üzücü	-11.0781
▁Hazır	-11.0781
▁Kişi	-11.0781
car	-11.0781
▁saldırgan	-11.0781
▁kayna	-11.0782
▁imalat	-11.0783
▁ayrılmış	-11.0783
▁göstergesi	-11.0784
▁yürürken	-11.0784
▁nu	-11.0785
üsü	-11.0785
▁mutluyum	-11.0786
▁başlıca	-11.0787
▁baska	-11.0788
▁yeraltı	-11.0788
▁kanalı	-11.0791
▁çalıyor	-11.0794
▁seviyesini	-11.0795
▁düşünüyorsanız	-11.0795
▁tarihini	-11.0797
▁üçgen	-11.0799
▁haricinde	-11.08
▁genlerin	-11.0801
▁Ray	-11.0802
▁alıyorsunuz	-11.0802
▁düzenlen	-11.0806
▁Karşı	-11.0807
diğimi	-11.0807
▁dinleyici	-11.0808
▁bilmez	-11.0808
▁kurumların	-11.0809
▁edebil	-11.0812
▁mantığı	-11.0813
▁36	-11.0813
▁eksi	-11.0813
▁oluşumu	-11.0814
▁bilmiyorduk	-11.0817
▁savaşçı	-11.0822
▁ayrım	-11.0824
▁satmak	-11.0825
▁varsay	-11.0831
▁Oda	-11.0833
▁üretmeye	-11.0833
▁analizi	-11.0835
▁elimizdeki	-11.0837
▁Yazı	-11.084
▁Bra	-11.0841
▁mesafede	-11.0846
mezsiniz	-11.0849
▁il	-11.0852
▁alırlar	-11.0854
▁icinde	-11.0857
▁Hepimizi	-11.0859
▁vermez	-11.0859
▁koltuk	-11.086
▁yapıyordum	-11.0863
▁işlemci	-11.0863
her	-11.0864
▁şempanzeler	-11.0867
▁ülkelerdeki	-11.0869
▁renkte	-11.0874
▁Balık	-11.0878
▁hareketler	-11.0882
▁Ger	-11.0883
▁şuan	-11.0884
eceğiniz	-11.0887
▁evreni	-11.0888
▁boyun	-11.089
▁evcil	-11.0893
▁hey	-11.0893
▁değilsiniz	-11.0894
▁kalmaya	-11.0895
dıkça	-11.0897
▁Seyirci	-11.0898
▁malzemeleri	-11.09
▁gerçeğ	-11.0901
▁grafiği	-11.0902
▁inandı	-11.0903
▁seçmek	-11.0908
▁ilki	-11.0911
engin	-11.0913
▁devri	-11.0915
▁tuz	-11.092
▁Kural	-11.0922
▁ayırma	-11.0923
▁ettirme	-11.0923
▁ulaştık	-11.0924
▁doğmuş	-11.0927
yordum	-11.093
▁aklımız	-11.093
sinizdir	-11.0931
▁ederse	-11.0933
▁nitelik	-11.0936
▁vücudu	-11.0936
BA	-11.0937
▁şeytan	-11.0941
▁fen	-11.0943
▁bütünüy	-11.0945
lediğimiz	-11.0945
▁soğu	-11.0946
▁Cambridge	-11.0947
▁Microsoft	-11.0947
▁Wikipedia	-11.0947
▁klavye	-11.0947
▁sandviç	-11.0947
▁estetik	-11.0947
▁gül	-11.0948
▁bulaşıcı	-11.0948
▁tükenmiş	-11.0948
▁sensör	-11.0948
▁farketti	-11.0949
▁gereksinim	-11.0949
▁ailelerin	-11.0949
▁masum	-11.095
▁evlat	-11.095
▁karışımı	-11.0951
▁Kişisel	-11.0951
▁pişmanlık	-11.0952
▁1.	-11.0952
▁arabaları	-11.0954
▁zıpla	-11.0956
▁AM	-11.0956
▁kalanını	-11.0957
▁konusunu	-11.0959
▁kabiliyet	-11.096
▁modül	-11.0961
▁gelirse	-11.0962
▁beklenti	-11.0965
▁dizisi	-11.0968
▁çektiği	-11.0968
▁farklılıkları	-11.0971
▁görüldüğü	-11.0972
▁Jane	-11.0973
▁Res	-11.0973
▁çit	-11.0974
▁enstitü	-11.0975
cisi	-11.0976
▁yaşıyorum	-11.0978
▁Ayn	-11.0982
▁İtalyan	-11.0982
▁parçaların	-11.099
▁fiber	-11.0991
▁yazısı	-11.0992
bilimci	-11.0996
▁Seyirciler	-11.0997
▁torunları	-11.1003
ig	-11.1003
irdi	-11.1004
▁havuzu	-11.1007
▁solu	-11.1011
▁bulunabilir	-11.1014
memiş	-11.1014
▁gidiş	-11.1017
ecektir	-11.1019
▁gününde	-11.102
▁değişiklikleri	-11.1024
▁Rob	-11.1024
▁Oradaki	-11.1025
▁pişir	-11.1025
▁çalar	-11.1026
▁oh	-11.1027
▁planla	-11.1027
▁eğil	-11.1031
MA	-11.1031
▁çözdü	-11.1033
▁Oray	-11.1033
▁Yapı	-11.1041
▁Kay	-11.1043
ER	-11.1044
▁bıraktığı	-11.1046
▁cevabını	-11.1047
▁gösterebilir	-11.1048
bon	-11.1051
▁parçacıklar	-11.1052
▁0.	-11.1052
hop	-11.1052
▁kafe	-11.1053
▁azaldı	-11.1054
▁alanlarını	-11.1055
▁w	-11.1056
▁atalarımız	-11.1058
malısın	-11.1059
▁modelin	-11.1059
▁düşür	-11.1059
▁girdik	-11.1064
▁bakıyorlar	-11.1066
▁çıkabilir	-11.1067
▁teknolojiyle	-11.1067
▁sahipsiniz	-11.1067
▁yapardı	-11.1074
▁örtüsü	-11.1074
▁atlama	-11.1076
▁baskın	-11.1077
▁yayılma	-11.1078
▁Hayatı	-11.1079
▁araçların	-11.1079
▁üretil	-11.108
▁emek	-11.108
▁geçirdiğim	-11.1083
▁Tor	-11.1088
dığımızı	-11.1088
▁kenarında	-11.1089
▁olmayacağı	-11.1089
üç	-11.1091
▁yayılması	-11.1093
▁uğramış	-11.1096
▁yerlerden	-11.1098
▁söylemiş	-11.1098
▁konuştuğu	-11.1099
▁yüksel	-11.1105
▁parmakları	-11.1108
▁mide	-11.1109
▁karmaşa	-11.1109
▁hayvanlarda	-11.1109
atör	-11.1113
▁huzur	-11.1113
▁niyet	-11.1114
▁muhafaza	-11.1116
▁tünel	-11.1116
▁halihazırda	-11.1117
▁peynir	-11.1117
▁Sahra	-11.1117
▁arşiv	-11.1117
▁patates	-11.1117
▁cihad	-11.1117
▁Binlerce	-11.1117
▁Kullan	-11.1117
▁enjekt	-11.1117
▁imge	-11.1117
▁öğe	-11.1117
▁goz	-11.1119
▁Nick	-11.1119
▁ettiklerini	-11.1121
▁düşünmeliyiz	-11.1121
▁Brun	-11.1121
▁yerlerin	-11.1122
▁Model	-11.1122
▁hayvanı	-11.1122
▁oluştuğunu	-11.1123
▁düşünebiliriz	-11.1124
▁uzanan	-11.1125
▁kalmayıp	-11.1126
▁Bron	-11.113
▁harcan	-11.113
▁öğrencilere	-11.1131
▁çocuğum	-11.1131
ünüzü	-11.1131
▁getiril	-11.1132
▁ayrıla	-11.1133
▁ellerini	-11.1133
▁küçül	-11.1134
▁şempanze	-11.1136
abilirler	-11.1137
▁ölüme	-11.1141
▁yapmalarını	-11.1142
▁maddeler	-11.1145
▁evimiz	-11.1145
▁uçma	-11.1147
▁etrafı	-11.1147
ph	-11.1149
▁burun	-11.1149
▁suçlama	-11.1149
▁geldiğimiz	-11.1149
▁Koruma	-11.1152
▁içsel	-11.1153
▁Che	-11.1153
▁özünde	-11.1154
▁salgını	-11.1155
▁sö	-11.1156
▁boyle	-11.1156
▁yitir	-11.1157
▁gidiyorum	-11.1158
▁Hayvan	-11.116
▁aramızda	-11.1163
ydiler	-11.1168
▁iyileştir	-11.1169
▁Şirketler	-11.1173
▁vücudunuz	-11.1174
▁genler	-11.1174
▁ülkesi	-11.1179
bl	-11.118
kâr	-11.1182
rası	-11.1184
▁getireceği	-11.1186
▁edilecek	-11.1189
▁bugünün	-11.1194
▁duydukları	-11.1196
▁kalbim	-11.1197
▁anımsa	-11.1199
ırım	-11.1201
▁yayılmış	-11.1202
City	-11.1204
ou	-11.1204
umuzun	-11.1208
amazdı	-11.1213
▁interneti	-11.1213
rah	-11.1214
▁üçü	-11.1216
▁700	-11.1217
fel	-11.1222
▁gene	-11.1222
▁ebeveynleri	-11.1225
▁saklan	-11.1226
▁aracın	-11.1228
▁nesneleri	-11.123
laştırıyor	-11.123
▁Din	-11.1231
▁başkası	-11.1231
▁ticareti	-11.1232
▁sever	-11.1236
▁element	-11.1239
▁tadı	-11.124
▁ortamında	-11.1243
▁inceler	-11.1243
▁bebeği	-11.1245
▁filmin	-11.1248
▁Ödülü	-11.1252
▁akımı	-11.1255
▁belirlen	-11.1259
tığınızda	-11.1259
▁almıştı	-11.1262
▁bulgu	-11.1263
▁Ü	-11.1265
▁Altın	-11.1267
tör	-11.1269
▁yaratık	-11.1271
amadı	-11.1271
larımla	-11.1271
▁Bas	-11.1271
▁etmeme	-11.1271
▁modelini	-11.1274
▁nakli	-11.1274
▁çaldı	-11.1278
▁yapamaz	-11.1278
▁dünyasının	-11.1279
▁nü	-11.1279
▁hayatlarında	-11.1283
▁tutum	-11.1284
▁ku	-11.1285
▁evlenme	-11.1286
▁Hristiyan	-11.1286
▁terapi	-11.1287
▁coğrafi	-11.1289
▁kristal	-11.1289
▁muayene	-11.1289
▁yozlaşma	-11.1289
▁hemfikir	-11.1289
▁evvel	-11.1289
▁ödüyor	-11.1289
▁Brown	-11.1289
▁sistematik	-11.1289
▁göğsü	-11.1289
▁sakat	-11.1289
▁işkence	-11.129
▁gütmeye	-11.129
malıdır	-11.129
rebiliriz	-11.1292
▁beklenen	-11.1293
▁gerektiğin	-11.1295
▁beyne	-11.1295
▁oluşu	-11.1295
▁göremiyor	-11.1297
▁gülme	-11.1297
▁belgesel	-11.1297
▁biliyorsun	-11.13
▁söylendi	-11.1301
▁bulunmaktadır	-11.1302
▁yapıyorsun	-11.1303
▁dayanan	-11.1303
▁Sıradaki	-11.1303
▁lens	-11.1303
▁yaklaştığı	-11.1304
▁duyuyoruz	-11.1307
▁sanatçılar	-11.1308
▁çağdaş	-11.1309
▁pe	-11.1316
av	-11.132
▁hissetmek	-11.1322
▁kavramını	-11.1323
▁Tri	-11.1325
▁gözükme	-11.1327
▁tabanı	-11.1327
▁geni	-11.1329
▁anneler	-11.133
▁alev	-11.1331
▁anlayabilir	-11.1333
▁adamların	-11.1333
▁çalan	-11.1333
atif	-11.1334
▁erkeklere	-11.1336
▁Gore	-11.1336
cısı	-11.1338
▁penguen	-11.134
▁bağlam	-11.134
▁hic	-11.1342
▁baktığımız	-11.1343
▁kılıyor	-11.1345
▁bakıyordu	-11.135
biliyor	-11.1351
▁böl	-11.1353
▁yapıştır	-11.1354
▁Kendini	-11.1357
▁aldığınız	-11.1358
▁ortaklık	-11.136
▁sağladık	-11.1361
▁gelirler	-11.1361
amam	-11.1362
▁29	-11.1368
▁diyebilir	-11.1371
▁olduğuydu	-11.1372
▁hoşum	-11.1373
ach	-11.1373
▁çektiğim	-11.1375
ebilecekleri	-11.1375
▁başkasının	-11.1375
▁artması	-11.1376
▁paylaştı	-11.1386
AR	-11.1387
▁kaçınma	-11.1389
▁dönüşü	-11.139
▁önerme	-11.1391
▁meslektaşlarım	-11.1394
▁bankacı	-11.1394
▁elit	-11.1396
▁harcıyor	-11.1397
gal	-11.14
▁bağlılık	-11.1402
▁şehirleri	-11.1403
▁kaplan	-11.1403
▁oluşturabilir	-11.1403
▁paylaştığı	-11.1404
▁tat	-11.1404
▁sürdür	-11.1406
▁duruyordu	-11.1409
▁sel	-11.141
▁askerler	-11.1411
▁Is	-11.1411
▁masada	-11.1412
▁She	-11.1414
the	-11.1414
▁düşünül	-11.1416
ücü	-11.1427
▁Telefon	-11.1428
▁Eh	-11.1431
▁doktoru	-11.1434
▁Okyanusu	-11.1435
▁senede	-11.1435
▁deyin	-11.1436
▁çocuklarım	-11.1438
▁vasıtası	-11.1444
▁yaşlarda	-11.1447
▁gerçekliğin	-11.145
öl	-11.1455
▁göründüğünü	-11.1456
ille	-11.1457
▁ormanda	-11.1458
▁ormanı	-11.1461
▁köken	-11.1463
▁Etiyopya	-11.1465
▁bambaşka	-11.1465
▁istihbarat	-11.1465
▁şükür	-11.1465
▁tweet	-11.1465
▁Şarkı	-11.1465
▁zafer	-11.1465
▁goster	-11.1465
▁Medya	-11.1465
▁ampul	-11.1465
▁denetim	-11.1466
▁hekim	-11.1466
▁Nano	-11.1467
▁Şans	-11.1469
ksiyon	-11.1469
▁gösterge	-11.1469
▁Arapça	-11.1469
iyeti	-11.147
▁yıkım	-11.147
▁destekliyor	-11.147
▁kalça	-11.1473
▁sars	-11.1473
▁kaybeden	-11.1473
▁diyebilirim	-11.1473
▁bakıcı	-11.1473
▁yıldızın	-11.1479
▁yaparım	-11.1483
▁edebilirim	-11.1484
ınızın	-11.1484
▁sanatsal	-11.1485
ven	-11.1486
dikçe	-11.1489
▁düşünebilir	-11.149
ling	-11.1491
▁mobilya	-11.1492
▁gittiler	-11.1492
▁ulaştığı	-11.1494
▁Matt	-11.1495
▁uçaklar	-11.1496
▁pas	-11.1497
▁ikon	-11.1497
ebildiği	-11.1497
sinda	-11.1498
are	-11.1498
▁Hedef	-11.15
▁İçeri	-11.1501
▁sürer	-11.1502
▁hayvanın	-11.1503
▁boşa	-11.1503
▁işitme	-11.1504
▁ekonomist	-11.1508
▁gerçekler	-11.151
▁Carl	-11.151
▁kibar	-11.1513
▁yüzen	-11.1516
abildik	-11.1522
▁bulabil	-11.1523
▁Star	-11.1523
▁almamız	-11.153
▁aktarıl	-11.1532
▁Joe	-11.1534
bilirsin	-11.1534
▁vurma	-11.1535
▁Uç	-11.1536
lüğ	-11.1544
▁gördüğünde	-11.1545
arası	-11.1545
▁İleri	-11.1547
▁kılı	-11.1548
laşır	-11.1549
▁yayılıyor	-11.155
ego	-11.1552
▁arkadaşlarımız	-11.1557
▁formül	-11.1557
lebilir	-11.1557
▁hareketini	-11.1559
▁unutmayı	-11.1559
▁hayatımızda	-11.1567
maktır	-11.1568
▁toplumlarda	-11.1571
▁arkada	-11.1571
mur	-11.1571
▁silahlar	-11.1578
▁toplar	-11.1579
▁uygulaması	-11.1583
▁başlaması	-11.1583
▁alabilme	-11.1585
▁maç	-11.1586
▁edebileceği	-11.1587
▁toprağın	-11.159
▁temizlik	-11.1592
▁bunda	-11.1593
▁resif	-11.1593
▁eğitme	-11.1596
▁CD	-11.1596
dayken	-11.1596
▁kayma	-11.1597
▁ölçmek	-11.1598
▁sistemde	-11.16
▁gec	-11.1601
▁başarma	-11.1611
▁Siyah	-11.1615
▁gitmeyi	-11.1616
▁çarpış	-11.1617
▁dinler	-11.1618
▁Merkez	-11.1618
skop	-11.1618
▁bilgisayarda	-11.1621
▁eserleri	-11.1621
▁durumları	-11.1621
▁açısını	-11.1622
▁gore	-11.1623
▁bıraktık	-11.1623
▁kullanılmış	-11.1625
irsiniz	-11.1625
▁ömür	-11.1625
▁mar	-11.1628
▁payı	-11.1629
▁artar	-11.1631
▁800	-11.1632
▁hatırlat	-11.1633
▁sini	-11.1633
▁açıklaması	-11.1634
▁çözümleri	-11.1635
▁Öte	-11.1635
▁yaya	-11.1637
▁aktiv	-11.1637
▁duyur	-11.1638
lduğunu	-11.1638
▁Boy	-11.1641
▁arkadaşımı	-11.1641
▁zorunlu	-11.1642
▁gençlerin	-11.1642
▁Gates	-11.1643
▁Kitabı	-11.1643
▁LED	-11.1643
▁Vakfı	-11.1643
▁coğrafya	-11.1643
▁dogru	-11.1643
▁fırça	-11.1643
▁şahane	-11.1643
▁Virgin	-11.1643
▁Pekâl	-11.1643
▁görülebilir	-11.1644
▁yatkın	-11.1644
▁unutu	-11.1645
▁yolsuzluk	-11.1646
dıklarında	-11.1647
▁Nehri	-11.1647
▁şe	-11.165
▁geçirmiş	-11.165
sünü	-11.1651
tesi	-11.1651
▁Newton	-11.1655
▁konuşuyorum	-11.1656
▁söyleyebiliriz	-11.1658
▁Polis	-11.1659
▁nehrin	-11.166
▁sistemlerin	-11.166
▁hükumet	-11.1661
▁uzaylı	-11.1661
▁katılımcı	-11.1662
▁aslin	-11.1662
▁iletişimi	-11.1662
ildiğinde	-11.1663
▁kg	-11.1664
▁edeceğiniz	-11.1664
▁yapısal	-11.1665
▁Boş	-11.1666
▁Kendimizi	-11.1667
iv	-11.1669
▁olsaydınız	-11.1671
▁Seçim	-11.1672
▁haliyle	-11.1672
▁raf	-11.1672
liğinde	-11.1673
▁Henr	-11.1673
▁hissettir	-11.1674
▁gideceği	-11.1674
rke	-11.1675
▁evrendeki	-11.1678
▁evlerinde	-11.1678
▁yosun	-11.1679
▁anlattığım	-11.168
▁çizme	-11.1681
▁kaos	-11.1681
▁bilerek	-11.1683
▁başkan	-11.1684
ladılar	-11.1687
20	-11.1688
▁Kitap	-11.169
▁hevesli	-11.1694
▁ima	-11.1694
▁seksi	-11.1695
▁etkileşime	-11.1697
düğünü	-11.1698
▁yakaladı	-11.1698
▁Cam	-11.1699
rız	-11.1699
mediği	-11.1699
▁gerçeğini	-11.1708
lmaz	-11.1708
▁deneyleri	-11.1709
▁besleme	-11.1712
▁çoğunluk	-11.1712
▁Geçmiş	-11.1714
▁Bayanlar	-11.1719
▁tasarladı	-11.172
▁çim	-11.1725
▁örneğini	-11.1727
,5	-11.1728
▁adamla	-11.1729
▁4.	-11.1729
▁aklımda	-11.173
▁rahatlık	-11.1731
▁cil	-11.1733
▁evrimi	-11.1733
▁kirlilik	-11.1734
mezler	-11.1735
▁idam	-11.1737
▁yapmaz	-11.1737
▁hedefler	-11.1739
▁çalışmalarını	-11.1745
▁baktığınız	-11.1749
▁Dev	-11.1752
▁Öğretmen	-11.1753
▁Durum	-11.1754
▁bulunmak	-11.1754
▁hatalar	-11.1757
▁karakterler	-11.1758
ill	-11.1764
▁disk	-11.1767
▁düzeni	-11.1768
▁girişimciler	-11.177
layacağız	-11.1771
▁birdenbire	-11.1774
▁evim	-11.1775
▁Big	-11.1776
▁merkezleri	-11.1777
▁sırrı	-11.1778
▁aklınızda	-11.1778
▁Ad	-11.1781
▁bakımı	-11.1781
▁duymuşsunuz	-11.1784
▁Bayan	-11.1784
▁kanıtlar	-11.1788
▁yükseldi	-11.1797
▁mirası	-11.1797
▁kaynakların	-11.18
▁tanımlıyor	-11.1802
saydık	-11.1806
▁ayırmak	-11.1807
▁aylar	-11.181
▁yetenekler	-11.1816
▁Hücre	-11.1825
▁doğuştan	-11.1825
▁istihdam	-11.1825
▁istismar	-11.1825
▁mecbur	-11.1825
▁muhabir	-11.1825
▁tahıl	-11.1825
▁Jeff	-11.1825
▁meslektaşım	-11.1825
▁numune	-11.1825
▁tasvir	-11.1825
▁Değer	-11.1825
▁Ruanda	-11.1825
▁Taliban	-11.1825
▁Yaratıcı	-11.1825
▁talebi	-11.1825
▁salon	-11.1825
▁Simdi	-11.1825
▁öldürücü	-11.1825
▁eşdeğer	-11.1825
▁düşünürüz	-11.1826
▁Kelime	-11.1826
▁Yıldız	-11.1826
▁çene	-11.1826
▁kızları	-11.1827
▁ilerledi	-11.1828
▁etnik	-11.1828
▁kavramsal	-11.1829
▁videoda	-11.1829
ria	-11.1829
▁etiketi	-11.1829
▁okuyucu	-11.183
▁hergün	-11.1831
▁Tony	-11.1831
mıyorlar	-11.1831
▁Nere	-11.1831
▁yıla	-11.1832
▁tanımlayan	-11.1833
▁savaşmak	-11.1833
▁Hastane	-11.1833
▁Ru	-11.1833
▁sayfası	-11.1835
▁etmenizi	-11.1838
▁1.000	-11.184
▁sunumu	-11.1842
▁oluşturmaya	-11.1842
▁yo	-11.1843
▁konuşuyoruz	-11.1843
▁gide	-11.1843
▁çevirmek	-11.1844
▁yürüyen	-11.1845
▁vazgeçme	-11.1846
▁görmedi	-11.1847
▁çalma	-11.1847
▁arılar	-11.1848
▁gö	-11.1855
▁oluşturacak	-11.186
▁sattı	-11.1861
labiliriz	-11.1862
▁akan	-11.1864
▁tutuk	-11.1865
▁Sor	-11.1865
NSA	-11.1866
▁görünmeyen	-11.1867
▁gelişiyor	-11.1867
▁araştırmak	-11.1867
▁savunmasız	-11.187
▁Adaları	-11.187
▁kafası	-11.187
▁odasına	-11.187
▁kurulmuş	-11.1878
▁ölçer	-11.1879
▁başlı	-11.188
▁ge	-11.1884
▁uzayın	-11.1884
▁dediğini	-11.1886
mıyordu	-11.1887
▁başarmak	-11.1887
▁bizimki	-11.1887
umuzu	-11.1889
▁mana	-11.1891
▁Yok	-11.1892
▁haftalık	-11.1893
amayacağı	-11.1897
▁değillerdi	-11.19
▁yüzeyde	-11.1902
▁riskleri	-11.1904
▁yaşayabilir	-11.1904
▁organı	-11.1907
ska	-11.1911
▁kullandığım	-11.1915
▁insa	-11.1916
▁yapabilecekleri	-11.1916
▁yerdeki	-11.1917
▁hikâyeler	-11.1918
▁kurumları	-11.1918
▁çalışmaların	-11.1918
▁yetiştirmek	-11.1919
▁amaçlar	-11.1924
▁kıyafet	-11.1925
▁yerleştirdik	-11.1927
mazsınız	-11.1927
▁mikroplar	-11.1928
▁butun	-11.1929
▁olmadıkları	-11.1935
diğine	-11.1939
▁simge	-11.194
▁karmaşıklık	-11.194
▁gömülü	-11.1941
▁elli	-11.1946
▁ürünlerin	-11.1947
▁çoğunda	-11.1947
▁adlandır	-11.1952
▁oğlunu	-11.1952
▁etmektir	-11.1952
lendiğini	-11.1955
▁kapa	-11.1956
▁heves	-11.1959
▁ulaşıyor	-11.196
▁avantajı	-11.1961
▁pu	-11.1962
▁Kev	-11.1963
▁yerleştirme	-11.1965
▁uyuyor	-11.1966
▁kapatma	-11.1967
▁çember	-11.1967
▁kahkaha	-11.1967
▁taşıdı	-11.1972
▁Sch	-11.1974
▁olurken	-11.1974
▁psiko	-11.1977
▁çıkarın	-11.1979
▁hayatınız	-11.1983
▁evliliği	-11.1983
▁sorunlarını	-11.1984
▁internetten	-11.1984
▁yaprak	-11.1984
▁yapabil	-11.1986
▁ileti	-11.1987
▁tıka	-11.1988
▁kullandığınız	-11.1992
▁yiyor	-11.1993
▁ameliyatı	-11.1996
▁öğretmenleri	-11.1997
▁yayınladı	-11.1999
▁katılmak	-11.1999
▁edinme	-11.2002
stik	-11.2003
▁özen	-11.2003
▁atı	-11.2004
▁tanımlar	-11.2004
▁tükenme	-11.2005
▁Marc	-11.2006
▁Sırada	-11.2009
▁kültürünü	-11.2009
▁Yan	-11.201
▁astronot	-11.201
▁filozof	-11.201
▁illüzyon	-11.201
▁laboratuar	-11.201
▁timsah	-11.201
▁çorba	-11.201
▁şarj	-11.201
▁patern	-11.201
▁İsmi	-11.201
▁rakip	-11.201
▁askerleri	-11.201
▁çevrili	-11.201
▁zira	-11.201
▁kurşun	-11.2011
▁Düşünün	-11.2012
▁zihniyet	-11.2012
▁Michel	-11.2012
▁itibariyle	-11.2012
▁yatay	-11.2012
ville	-11.2012
▁bilmeniz	-11.2014
▁hasat	-11.2014
▁yırtıcı	-11.2016
imizden	-11.2016
▁Fare	-11.2016
▁sezgisel	-11.2016
▁sorabilirsiniz	-11.2017
▁kitabını	-11.2027
▁Bell	-11.2027
▁durak	-11.2028
lenecek	-11.2031
▁unu	-11.2034
nter	-11.2035
▁erkeğin	-11.2037
▁bağlıyor	-11.2038
▁belirleye	-11.2041
▁yıkıl	-11.2048
▁sütun	-11.2049
rmak	-11.205
▁sevdim	-11.2052
▁arkadaşlarınız	-11.2056
opi	-11.2061
▁seçenekler	-11.2062
çılar	-11.2064
▁yolculuğun	-11.2065
▁başvuru	-11.207
▁Sir	-11.2076
▁nesnelerin	-11.2076
▁istenme	-11.2078
▁bulmamız	-11.2079
▁içinizde	-11.2082
▁gitmiyor	-11.2084
▁geçirdiği	-11.2084
▁çıkarım	-11.2084
▁kişileri	-11.2088
-2	-11.2093
▁Nik	-11.2093
▁alınma	-11.2094
▁denemeye	-11.2098
▁duymaya	-11.2101
▁tabu	-11.2102
▁edebileceğimiz	-11.2102
amanı	-11.2102
▁köşede	-11.2104
▁yoğunluk	-11.2105
▁kameralar	-11.2105
▁fırlat	-11.2109
▁araştırdı	-11.2111
▁şef	-11.2114
▁denizin	-11.2115
arry	-11.2115
▁Mola	-11.2115
▁Fl	-11.2116
leşmesi	-11.2117
▁emisyon	-11.2117
▁doğdum	-11.2119
▁Hay	-11.212
▁tasarrufu	-11.2121
▁şerit	-11.2121
▁bırakın	-11.2122
▁Green	-11.2123
▁belirtmek	-11.2125
emeyeceği	-11.2125
digini	-11.2125
▁ödev	-11.2127
▁gerçeğin	-11.2129
▁sürüklen	-11.2129
▁lisede	-11.213
ğr	-11.2132
▁öteki	-11.2133
▁sivrisinek	-11.2134
gre	-11.2141
▁kalmaz	-11.2145
▁geleni	-11.2148
▁Avrupalı	-11.2149
▁zenginlik	-11.215
▁mekanizması	-11.215
▁Başkanı	-11.2152
▁bakterilerin	-11.2152
▁kolları	-11.2153
▁lo	-11.2155
▁kemikleri	-11.2155
▁okudu	-11.2158
▁bölümleri	-11.2159
▁Inc	-11.2159
▁yaralanma	-11.2159
▁katlı	-11.2162
▁balonu	-11.2166
▁iyileştirmek	-11.2166
▁kafamda	-11.2166
▁işlediğini	-11.2167
▁Pal	-11.2168
digimiz	-11.2173
▁kast	-11.2174
▁salgının	-11.2174
▁baya	-11.2175
acakları	-11.2179
▁iyilik	-11.2187
laması	-11.2189
▁canlandırma	-11.2191
▁oluştuğu	-11.2192
▁eğlen	-11.2193
mıyorum	-11.2195
▁Güç	-11.2196
▁biyolog	-11.2196
▁attığı	-11.2196
▁bulacak	-11.2196
▁bozukluk	-11.2198
▁saklı	-11.2198
▁teşkil	-11.2199
▁semptom	-11.2199
▁sponsor	-11.2199
▁örüntü	-11.2199
▁Nihayet	-11.2199
▁ritüel	-11.2199
▁spesifik	-11.2199
▁otoyol	-11.2199
▁düşünüp	-11.2199
▁Şiir	-11.2199
▁Brian	-11.2199
▁taciz	-11.2199
▁makul	-11.2199
▁Berlin	-11.22
▁konuşmasını	-11.22
▁Aralık	-11.22
▁haz	-11.22
▁Jack	-11.2201
▁193	-11.2201
▁tuş	-11.2202
▁fren	-11.2202
▁2020	-11.2203
▁başımıza	-11.2204
▁Seat	-11.2204
▁kromozom	-11.2206
▁Eşim	-11.2207
▁Lise	-11.2209
▁yapama	-11.2209
▁gündüz	-11.221
▁lamba	-11.2211
liklerini	-11.2212
▁işçiler	-11.2213
▁arkadaşlarını	-11.2215
▁Öz	-11.2223
▁arayüzü	-11.2223
meliyim	-11.2224
▁anlaşılması	-11.2225
▁kanunları	-11.2226
mizdeki	-11.2226
yacaksınız	-11.2226
▁bölgesel	-11.2227
▁benzersiz	-11.2229
▁büyülü	-11.223
▁amca	-11.2231
▁lezzetli	-11.2232
▁yaşandı	-11.2232
▁mutluluğu	-11.2235
▁halı	-11.2235
▁satıcı	-11.2237
▁Bel	-11.2243
▁Fil	-11.2245
▁öncelik	-11.2246
▁goru	-11.2247
▁Arkadaş	-11.2247
▁Sistemi	-11.225
▁Dün	-11.2251
▁altta	-11.2253
▁olsalar	-11.2254
▁evre	-11.2254
layabilirsiniz	-11.2255
▁yetkili	-11.2257
of	-11.2258
▁ışığ	-11.2265
▁maliyetini	-11.2265
batı	-11.2265
ben	-11.2266
▁kıza	-11.2266
▁bağlanmış	-11.2268
▁beyninde	-11.2268
▁aklınız	-11.2269
▁hayatınızda	-11.2274
▁versiyonunu	-11.2274
▁Bilme	-11.2274
▁evsiz	-11.2275
▁kültürümüz	-11.2275
▁Gelin	-11.2278
▁Dışarı	-11.2281
▁Birden	-11.2282
▁bahsetmiyoru	-11.2284
▁gittiğinde	-11.2289
meme	-11.2292
▁çalıştıkları	-11.2292
▁sorusunu	-11.2293
▁ödeye	-11.2295
▁anlayabiliyor	-11.2297
▁cm	-11.2297
lur	-11.2299
▁boğul	-11.2301
▁seninle	-11.2302
▁olanağı	-11.2302
ell	-11.2304
▁cezası	-11.2306
▁tema	-11.2307
▁cevapları	-11.2308
amadım	-11.231
▁metan	-11.2312
▁ilgilenmeye	-11.2314
▁değerinde	-11.2315
▁bölme	-11.2315
▁Git	-11.2316
▁mekaniği	-11.2316
leyelim	-11.2321
▁teknikleri	-11.2322
duğumuz	-11.2324
▁aklı	-11.2326
▁açılış	-11.2326
▁komşuları	-11.2326
▁bölgelerin	-11.2327
▁gücümüz	-11.2329
ros	-11.2329
▁yakınında	-11.2331
▁akıntı	-11.2332
▁Hayatımı	-11.2336
▁çiftleşme	-11.2336
▁so	-11.2338
▁lobi	-11.2339
▁yaşları	-11.2339
▁birsey	-11.2342
▁deneyin	-11.2348
▁barındır	-11.235
▁umutsuz	-11.2351
▁topladık	-11.2354
▁tesadüf	-11.2355
▁bileşen	-11.2356
▁karşılaştığı	-11.2356
▁olmayacaktı	-11.2358
▁kırıklığın	-11.236
▁önceydi	-11.2365
▁Hollanda	-11.2365
yacağı	-11.2366
▁gündem	-11.2367
▁zamanımız	-11.2372
▁müdürü	-11.2374
ıyorlardı	-11.2374
▁bilmiyordu	-11.2377
▁etmediği	-11.2378
▁dinleyiciler	-11.2378
▁yüzün	-11.2378
▁çalışmış	-11.2378
iğe	-11.2379
▁kullanacağı	-11.238
▁zıt	-11.2381
▁arkasın	-11.2385
▁bakmayı	-11.2386
çü	-11.2386
▁alışkanlık	-11.2388
▁kader	-11.2388
▁okullarda	-11.239
▁samimi	-11.2391
▁National	-11.2391
▁Parkinson	-11.2391
▁oksitosin	-11.2391
▁avuç	-11.2391
▁beyefendi	-11.2391
▁manşet	-11.2391
▁fatura	-11.2391
▁genetiği	-11.2391
▁izole	-11.2391
▁oğlan	-11.2391
▁Delhi	-11.2392
▁Duvar	-11.2392
▁solunum	-11.2392
▁Şubat	-11.2392
▁görülür	-11.2392
▁kümesi	-11.2392
▁videosu	-11.2393
▁hayranı	-11.2393
▁niha	-11.2394
▁kırı	-11.2397
▁yağı	-11.2397
▁II	-11.2398
▁harcıyoruz	-11.24
▁çalışmakta	-11.2402
tasyon	-11.2402
▁Bunlara	-11.2411
lduğunda	-11.2412
▁durdurmak	-11.2414
▁geleneği	-11.2415
▁kaldırıp	-11.2415
mişler	-11.2418
▁temizle	-11.2419
▁araştırması	-11.2421
▁yüzeyin	-11.2422
▁efekt	-11.2423
▁yaşamayı	-11.2426
▁bulunması	-11.2427
▁anlayan	-11.2429
▁Kaçınız	-11.2429
▁profesörü	-11.243
▁karanlıkta	-11.2433
▁olsam	-11.2433
▁Nor	-11.2434
▁olanlardan	-11.2437
▁koro	-11.2438
▁niyetli	-11.2438
▁eğ	-11.2438
▁anlayabilmek	-11.2441
▁isteriz	-11.2443
yacağız	-11.2447
▁servisi	-11.2449
▁Herkesi	-11.2451
▁kalkış	-11.2451
▁edemiyor	-11.2452
▁engellemek	-11.2452
▁sağdaki	-11.2454
▁konsept	-11.2456
▁telefonlar	-11.2456
▁değişmesi	-11.2457
▁Dağı	-11.2457
▁Derin	-11.2459
▁kaldırım	-11.2461
▁ırkçı	-11.2461
▁yayınlama	-11.2461
▁amacım	-11.2463
▁Yara	-11.2466
▁bozu	-11.2467
▁Devrimi	-11.2469
▁kaçın	-11.2469
▁bölgeyi	-11.247
▁verdiğiniz	-11.2473
▁sokaklarda	-11.2475
▁190	-11.2476
▁öğrendikleri	-11.2476
▁sağlığını	-11.2477
doğu	-11.2479
▁şeffaflık	-11.248
▁hareketlerini	-11.248
▁okuy	-11.2483
▁önlemek	-11.2483
▁Bor	-11.2483
▁inceledik	-11.2484
▁durduğu	-11.2485
▁tartışmaya	-11.2486
▁gösteriyorum	-11.2486
▁öğreti	-11.2486
▁bilmediğimiz	-11.2487
▁teknolojimiz	-11.2488
▁bilimci	-11.2496
ebilirler	-11.25
▁kaybolma	-11.2502
▁sıralama	-11.2505
abilmesi	-11.2505
▁ilgilenir	-11.2508
▁Tar	-11.2509
▁ulaşı	-11.251
▁gereklidir	-11.2511
▁işaretleri	-11.2513
▁Ali	-11.2513
▁verirler	-11.2516
▁temelinde	-11.252
▁kaynaklarını	-11.2524
▁avlanma	-11.2525
▁Pen	-11.2525
▁Gen	-11.2528
▁satıyor	-11.2531
▁edeceğini	-11.2531
▁yerdi	-11.2533
lanmamış	-11.2535
▁peri	-11.2535
▁gülümseme	-11.2536
▁savun	-11.2546
▁Filistin	-11.2547
▁gitmişti	-11.2547
▁Kas	-11.2549
▁silahları	-11.2553
▁karın	-11.2553
▁Han	-11.2558
▁teker	-11.2558
▁görüldü	-11.2559
▁kodlama	-11.2559
▁uyuş	-11.2566
▁dikil	-11.2571
and	-11.2572
▁sihir	-11.2572
▁ayaklanma	-11.2575
▁taşıy	-11.2575
▁konuşu	-11.2576
▁salgı	-11.2577
▁karış	-11.2577
▁molekülü	-11.2577
▁çekin	-11.2581
▁gönderir	-11.2581
▁Hav	-11.2584
▁Anlaşıl	-11.2587
▁argüman	-11.2587
▁origami	-11.2587
▁bayrak	-11.2587
▁garaj	-11.2587
▁sansür	-11.2587
▁Silah	-11.2587
▁ürkütücü	-11.2587
▁Görünüş	-11.2587
▁servet	-11.2587
▁pamuk	-11.2587
▁ufacık	-11.2588
▁Julia	-11.2588
▁düşünürsünüz	-11.2588
▁ipucu	-11.2588
▁üzgünüm	-11.2588
▁öldürüyor	-11.2588
▁Bitki	-11.2588
▁istiyorsun	-11.2588
▁Yemen	-11.2588
▁seferde	-11.2589
▁Dahası	-11.2589
▁Josh	-11.259
▁lanet	-11.259
▁haberdar	-11.259
▁gayri	-11.2591
▁Aşk	-11.2591
▁girmiş	-11.2591
ju	-11.2592
▁politikacı	-11.2592
▁düşündüğünü	-11.2592
▁Etki	-11.2592
▁iyiye	-11.2592
▁azınlık	-11.2593
abiliyorlar	-11.2594
Kaide	-11.2595
▁cerrah	-11.2596
▁İlgi	-11.2597
▁barışı	-11.2597
şu	-11.2598
▁yaramıyor	-11.2598
▁bahar	-11.2598
▁asi	-11.2599
▁aygıt	-11.26
▁görelim	-11.26
▁Kazan	-11.26
▁vardık	-11.2602
etmek	-11.2603
▁Beynin	-11.2604
▁ayıran	-11.2604
▁sınırlarını	-11.2605
▁giderseniz	-11.2606
▁açıklamaya	-11.2607
▁belirsizlik	-11.2607
▁ifadesi	-11.261
▁ulaşması	-11.2611
▁hastaya	-11.2614
▁beklemek	-11.2617
▁dikkatinizi	-11.2619
▁seven	-11.2621
▁seçilmiş	-11.2625
▁arttırma	-11.2625
▁konuşul	-11.2627
▁boyutunda	-11.2628
ladığım	-11.2628
▁koruyor	-11.2629
▁değiştiği	-11.2629
▁kavra	-11.2634
▁kapsaya	-11.2636
▁My	-11.2637
▁vatandaşlar	-11.2638
▁hissettiğim	-11.2642
yorsun	-11.2642
▁güne	-11.2644
▁seçti	-11.2646
▁Eg	-11.2648
▁West	-11.265
▁okulları	-11.2651
▁edeceksiniz	-11.2652
laşan	-11.2654
ıvı	-11.2654
▁sözcük	-11.2654
▁çeviriyor	-11.2657
▁gördükleri	-11.2659
▁kaplama	-11.2659
▁sinyaller	-11.266
▁kafes	-11.2661
▁koleksiyon	-11.2663
▁olmazsa	-11.2665
▁ağlama	-11.2667
larinda	-11.2667
rum	-11.2668
gat	-11.2668
▁götürü	-11.2671
▁kayı	-11.2671
▁kullanacağım	-11.2674
▁kampanyası	-11.2675
▁durumla	-11.2676
▁oynamaya	-11.2677
▁hayalim	-11.2677
▁harikaydı	-11.268
▁açılma	-11.268
stro	-11.2683
▁başarmış	-11.2683
▁günleri	-11.2685
▁Çinli	-11.2689
▁yazdığım	-11.2692
▁düşünmenin	-11.2696
▁gör	-11.2697
▁Gol	-11.2697
▁oyuncuları	-11.2697
▁içindeydi	-11.2698
▁buldukları	-11.27
▁hapiste	-11.2704
▁Lin	-11.2705
▁kası	-11.2708
▁depolama	-11.2711
▁eklem	-11.2711
▁hazırlama	-11.2712
▁yayınlandı	-11.2712
▁içerir	-11.2713
▁elimi	-11.2715
▁yasalar	-11.2715
▁almıyor	-11.2717
▁uza	-11.2717
▁insanoğlunu	-11.2718
deydim	-11.2722
13	-11.2723
▁duydun	-11.2726
▁Olan	-11.273
▁arayan	-11.2731
▁yapsa	-11.2733
▁toplulukları	-11.2737
▁dağılımı	-11.2737
▁kartları	-11.2744
▁kontrolünü	-11.2744
▁kaynaş	-11.2746
▁çıkartma	-11.2747
▁Ata	-11.2748
▁ideoloji	-11.2748
▁gitmedi	-11.2748
stan	-11.275
shi	-11.275
▁kaldığı	-11.2751
▁Çift	-11.2753
▁gergin	-11.2754
landığında	-11.2758
ook	-11.276
sis	-11.276
▁katıldığı	-11.2762
▁eleman	-11.2762
▁detayları	-11.2762
▁inşaa	-11.2764
▁Steven	-11.2766
▁indi	-11.2766
▁çalın	-11.2769
▁başkaları	-11.2773
▁rahatsızlık	-11.2774
▁paylaşım	-11.2775
▁gram	-11.2776
gras	-11.2777
erry	-11.2779
▁kabullen	-11.2781
aten	-11.2781
▁çalı	-11.2784
▁sunucu	-11.2786
▁Grön	-11.2787
▁Detroit	-11.2787
▁Norveç	-11.2787
▁Profesör	-11.2787
▁Singapur	-11.2787
▁kulübe	-11.2787
▁levha	-11.2787
▁doğaçlama	-11.2787
▁omurilik	-11.2787
▁pantolon	-11.2787
▁talimat	-11.2787
▁Nelson	-11.2787
▁manevi	-11.2787
▁Life	-11.2787
▁hakkını	-11.2788
▁GSM	-11.2788
▁ölçtü	-11.2788
▁Şili	-11.2788
▁asteroid	-11.2789
-1	-11.2789
▁kademe	-11.2789
▁Kızıl	-11.2789
▁sağla	-11.2789
layayım	-11.2789
▁kirlet	-11.2789
▁söyledik	-11.279
▁Rock	-11.279
eb	-11.279
▁romantik	-11.279
▁etkileyecek	-11.279
▁okyanuslar	-11.279
▁bozucu	-11.279
▁dilerim	-11.2791
▁şov	-11.2791
▁çocuğunu	-11.2794
▁duyulan	-11.2794
▁kaçırma	-11.2795
▁şüpheci	-11.2797
▁bireyin	-11.2797
▁uçuşu	-11.28
▁Mus	-11.2802
▁bandı	-11.2802
▁hipotez	-11.2804
sinler	-11.2804
▁olacağımız	-11.2809
▁umur	-11.281
▁Ani	-11.2812
▁şiş	-11.2812
layabilecek	-11.2819
▁tabiat	-11.2821
▁teknikler	-11.2823
▁Yaptığım	-11.2823
▁buralarda	-11.2824
▁ulaşan	-11.2826
▁cins	-11.2826
▁destekçi	-11.2827
▁sektörü	-11.2828
lla	-11.2829
▁har	-11.283
▁bilgisayarları	-11.2831
▁televizyonda	-11.2832
▁duyulma	-11.2832
▁yeteneklerini	-11.2833
▁evler	-11.2835
▁fırsatları	-11.2836
▁ormanlar	-11.2837
▁azal	-11.2838
▁Par	-11.2839
▁modelleme	-11.2841
▁kurtulmak	-11.2841
▁kazandık	-11.2847
▁Ağ	-11.2848
▁sıralarda	-11.285
▁isimlendir	-11.2851
▁genişliğinde	-11.2852
▁anıt	-11.2852
▁Değiş	-11.2856
▁paraya	-11.2856
▁çiçekler	-11.2856
irsek	-11.2857
▁Normalde	-11.2858
▁taşları	-11.2861
▁ettiğinde	-11.2861
▁aradım	-11.2862
▁Eş	-11.2862
▁format	-11.2863
▁dansı	-11.2868
▁sembolü	-11.2872
iki	-11.2872
▁sayma	-11.2873
star	-11.2873
▁hataları	-11.2875
▁ilginçtir	-11.2877
leştiği	-11.2878
▁Çocuğu	-11.2883
▁yazın	-11.2886
▁delil	-11.2887
▁hissetti	-11.289
▁anlayama	-11.2894
▁zorlukları	-11.2895
▁sıçrama	-11.2899
leşmeye	-11.2903
▁ebeveynler	-11.2904
▁kirliliği	-11.2906
rdu	-11.2909
▁dönecek	-11.2909
▁takdirde	-11.2912
bildiği	-11.2912
▁koleksiyonu	-11.2913
▁Körfezi	-11.2914
▁araştırmayı	-11.2915
▁sür	-11.2921
▁bağlama	-11.2923
▁hatırlay	-11.2925
▁temizleme	-11.2926
▁Pri	-11.2928
▁tutul	-11.2928
▁dönüştürüyor	-11.293
▁Dar	-11.293
emeyen	-11.2931
▁yaptığımızda	-11.2933
▁kaybol	-11.2933
▁madenci	-11.2936
▁başlayacağım	-11.2938
▁br	-11.2938
▁olaya	-11.2938
maktansa	-11.294
▁dördü	-11.294
▁maya	-11.2941
▁Brad	-11.2941
▁belirlemek	-11.2944
luğunu	-11.2944
▁Cal	-11.2946
▁varmak	-11.2946
▁arayışı	-11.2947
▁anlamayı	-11.2948
▁diyorsunuz	-11.295
▁Bre	-11.2951
▁paketi	-11.2954
▁endişelenme	-11.2957
▁koşullarda	-11.2959
▁gökyüzün	-11.2964
▁görüyorlar	-11.2965
▁hissini	-11.2965
▁anlatacak	-11.2966
▁saçı	-11.2969
▁Kura	-11.297
▁matematiğin	-11.2974
▁köpekler	-11.2974
▁çekmeye	-11.298
▁umursama	-11.298
my	-11.2982
▁kapitalizm	-11.2983
▁istikrar	-11.2984
▁opera	-11.2988
▁gittiğim	-11.299
▁Aristo	-11.2991
▁Dördüncü	-11.2991
▁federal	-11.2991
▁festival	-11.2991
▁halüsinasyon	-11.2991
▁senkroniz	-11.2991
▁tsunami	-11.2991
▁şampiyon	-11.2991
▁Somali	-11.2991
▁mühim	-11.2991
▁gayret	-11.2992
▁Sekiz	-11.2992
▁olmamızı	-11.2992
▁obezite	-11.2992
▁Köy	-11.2992
▁gösterdim	-11.2992
▁kısıtlama	-11.2992
▁Örgütü	-11.2992
▁borsa	-11.2992
▁mucit	-11.2992
▁vaad	-11.2992
▁logo	-11.2992
▁dindar	-11.2993
▁ivme	-11.2993
▁Port	-11.2994
▁yönlü	-11.2995
▁mega	-11.2996
▁mutluluğun	-11.2996
▁bilmeyen	-11.2996
▁Hill	-11.2997
▁projeleri	-11.2998
▁yaradığını	-11.2998
▁gerçekleşir	-11.2999
▁hayattaki	-11.2999
▁bitirdi	-11.2999
▁Charl	-11.2999
▁Kolay	-11.3
▁uzerinde	-11.3001
▁İnan	-11.3005
▁adaptasyon	-11.3005
yuz	-11.3006
▁yolladı	-11.3007
▁solda	-11.3008
▁robotu	-11.3008
▁Söyle	-11.3008
▁sarf	-11.3008
▁engelleri	-11.3009
▁sağda	-11.3009
▁görüyordu	-11.3021
▁hazırlık	-11.3023
▁85	-11.3024
▁işinde	-11.3028
▁hassasiyet	-11.3031
▁görevlisi	-11.3033
▁meyilli	-11.3039
▁SS	-11.3039
▁Cun	-11.304
▁bileşeni	-11.3044
▁geçebilir	-11.3044
▁bulmayı	-11.3045
larini	-11.3046
mekle	-11.3046
▁taraflı	-11.3046
▁çapl	-11.3048
▁yansıtma	-11.3048
▁proteinler	-11.3049
▁koyuldu	-11.3049
▁eğitil	-11.305
layacağım	-11.3051
▁mikrofon	-11.3052
▁ikili	-11.3053
▁kullanacak	-11.3053
▁nesiller	-11.3054
▁duvarlar	-11.3054
▁hi	-11.3055
▁Air	-11.3056
▁arkamda	-11.3057
▁organizasyonlar	-11.3057
leştirmeye	-11.3058
▁itme	-11.3059
▁geldiklerinde	-11.3059
▁Hayatın	-11.3062
▁politikası	-11.3064
▁belkide	-11.3065
fik	-11.3066
yabilirsiniz	-11.3068
ment	-11.3071
▁bilge	-11.3073
▁hapis	-11.3078
▁anlayabil	-11.308
▁tuttur	-11.3081
▁kuvvetleri	-11.3084
▁bilgilerini	-11.3085
diklerinde	-11.3085
▁birleştirme	-11.309
yabilir	-11.3091
▁maddeleri	-11.3091
▁asal	-11.3092
liğimiz	-11.3093
▁Dinle	-11.3093
▁taban	-11.3097
rtesi	-11.31
▁seçenekleri	-11.3101
▁birlik	-11.3101
▁sundu	-11.3102
▁düzensiz	-11.3103
baba	-11.3104
▁fikirle	-11.3104
arsanız	-11.3104
▁yerleştirmek	-11.3105
fu	-11.3109
▁yarıya	-11.3112
▁AB	-11.3113
▁aya	-11.3114
▁tarzda	-11.3115
▁kapsa	-11.3115
▁yerindeki	-11.3118
▁bakışı	-11.3119
▁evleri	-11.3124
▁vizyonu	-11.3124
▁becerisi	-11.3126
▁olduklarından	-11.3129
▁filmleri	-11.3132
▁amaçları	-11.3133
▁açabilir	-11.3138
▁verebil	-11.3139
▁oynadığı	-11.3139
▁sorduğu	-11.314
▁birimiz	-11.3142
▁sizlerin	-11.3143
▁söylemedi	-11.3146
▁paylaşacağım	-11.3147
▁Diğeri	-11.3149
▁maka	-11.3152
▁üretti	-11.3153
▁Çince	-11.3155
▁sahibim	-11.3155
▁sizde	-11.3156
▁bilmediği	-11.3157
▁sonlarında	-11.3157
▁hatırlattı	-11.3158
▁erkekleri	-11.3158
▁çağda	-11.3161
▁Acı	-11.3162
▁çıkarabilir	-11.3166
▁düşündükleri	-11.3167
omi	-11.3169
▁astronomi	-11.317
hol	-11.3171
▁demo	-11.3175
▁taraftaki	-11.3177
▁olamadı	-11.3178
▁şanslıydı	-11.3181
▁yaşayacağı	-11.3181
▁alacağım	-11.3184
▁Amerikalıları	-11.3185
▁mülk	-11.3188
▁parayla	-11.3191
▁bağlanma	-11.3194
▁no	-11.3194
larıydı	-11.3194
▁kayak	-11.3195
dra	-11.3195
▁Kır	-11.3198
▁üzgün	-11.3199
▁Bangladeş	-11.32
▁Demokrat	-11.32
▁Soğuk	-11.32
▁fevkalade	-11.32
▁Sekoya	-11.32
▁klişe	-11.32
▁çekirdeği	-11.32
▁tercüme	-11.32
▁Watson	-11.32
▁öğüt	-11.32
▁Türkiye	-11.32
▁Olimpiyat	-11.32
▁hatıra	-11.32
▁Ticaret	-11.32
▁muhafazakar	-11.3201
▁Plan	-11.3201
▁yedek	-11.3201
▁Mayıs	-11.3201
▁Parça	-11.3201
▁Lester	-11.3202
▁uygulanabilir	-11.3202
▁bayılıyorum	-11.3204
yal	-11.3204
▁Motor	-11.3204
▁cikar	-11.3205
▁Akıllı	-11.3206
▁keçi	-11.3207
elanda	-11.3208
▁Batılı	-11.3208
▁sektörün	-11.3209
▁İncil	-11.3209
▁okuyan	-11.3211
düz	-11.3212
▁dolaşım	-11.3212
masından	-11.3213
▁beklentisi	-11.3215
▁çayır	-11.3215
▁getirerek	-11.3215
▁götüren	-11.3215
▁duvarın	-11.3215
▁olmamalı	-11.3216
▁yapıda	-11.3216
▁SW	-11.3218
▁ailesini	-11.3219
▁kuyu	-11.3221
▁imkân	-11.3221
▁sakla	-11.3227
▁yem	-11.3228
▁kurtardı	-11.3229
▁uydur	-11.3231
▁uzaklaştır	-11.3232
▁ekledik	-11.3235
▁Sanal	-11.3236
▁olgun	-11.3238
▁bırakan	-11.324
▁kurumu	-11.3241
▁vurgu	-11.3244
▁aklın	-11.3245
▁giyiyor	-11.3245
▁dilde	-11.3245
ılmasını	-11.3245
▁almadı	-11.3248
▁dağın	-11.3248
meyeceğiz	-11.325
▁boyutları	-11.325
▁güzeldi	-11.325
ttığı	-11.3251
ira	-11.3252
▁yanınızda	-11.3253
▁Mer	-11.3256
▁unsur	-11.3263
▁sözleşme	-11.3263
▁hissediyorsunuz	-11.3264
üzün	-11.3265
▁Bol	-11.3268
▁soldaki	-11.3272
▁çalışabilir	-11.3273
▁maliyetleri	-11.3274
▁tez	-11.3275
▁durdurma	-11.3277
lamayı	-11.3277
▁Kah	-11.3279
▁42	-11.3281
DR	-11.3284
▁gitmemiz	-11.3286
bilim	-11.3287
yacaktır	-11.3289
▁cesareti	-11.3292
▁şarkıcı	-11.3293
▁aşkı	-11.3294
▁inançları	-11.3295
▁geçmeye	-11.3296
▁yaptığında	-11.3296
▁uçtu	-11.33
▁sevmiyor	-11.3306
▁buhar	-11.3306
▁sarma	-11.3307
▁sayısal	-11.331
▁eğitmek	-11.3311
▁doğrusal	-11.3312
▁üstündeki	-11.3316
▁arkadaşlık	-11.3318
▁Ten	-11.3318
▁arabaların	-11.3322
▁yerle	-11.3322
▁hacker	-11.3323
▁dörtte	-11.3324
▁görünebilir	-11.3327
▁enerjisini	-11.3331
▁Dediğim	-11.3332
▁döndüğüm	-11.3332
▁yıldızları	-11.3335
▁kesil	-11.3335
▁açıl	-11.3339
▁Yaptığı	-11.3339
▁panel	-11.3341
luş	-11.3342
▁konuştuğum	-11.3343
▁etkilen	-11.3345
▁fonksiyonu	-11.3346
▁çıktılar	-11.3348
▁makinası	-11.3348
▁atın	-11.3349
▁ilişkilendir	-11.335
5.000	-11.3353
▁bulundukları	-11.3353
▁William	-11.3353
▁eyaletler	-11.3355
ras	-11.3356
▁klip	-11.3358
▁yiyecekler	-11.3359
layalım	-11.336
▁kuşların	-11.3364
▁yerleş	-11.3364
▁bağlamak	-11.3364
laştığı	-11.3364
bilirsek	-11.3365
▁Mısırlı	-11.3367
▁gerçekleri	-11.3368
▁başlangıcında	-11.3368
▁War	-11.3372
▁binaları	-11.3373
▁zincir	-11.3375
▁gelişimin	-11.3375
▁örnekle	-11.3376
▁sorunlara	-11.338
▁paylaşıyor	-11.338
▁ışın	-11.338
▁okuyu	-11.3381
▁bilimciler	-11.3383
▁kapattı	-11.3389
▁eklemek	-11.3389
mişimdir	-11.339
▁birleşme	-11.3392
▁dolaş	-11.3393
▁kablolar	-11.3398
dikten	-11.3399
▁kuvveti	-11.3407
dr	-11.3408
▁husus	-11.3412
▁Diyelim	-11.3413
▁Elektrik	-11.3413
▁hiyerarşi	-11.3413
▁hoparlör	-11.3413
▁iPod	-11.3413
▁reaktör	-11.3413
▁tişört	-11.3413
▁İrlanda	-11.3413
▁Kulağa	-11.3413
▁Ağaç	-11.3413
▁Nefes	-11.3413
▁piksel	-11.3413
▁gökada	-11.3413
▁Görünen	-11.3413
▁baloncuk	-11.3413
▁iğrenç	-11.3413
▁çete	-11.3413
▁komedi	-11.3413
▁seçkin	-11.3413
▁ezber	-11.3413
▁israf	-11.3414
▁sayılmaz	-11.3414
▁Albert	-11.3414
▁gittiğinizde	-11.3415
ung	-11.3415
▁sizce	-11.3416
▁başlamalıyız	-11.3417
▁söylemiyorum	-11.3418
▁değiştirebil	-11.3421
▁dökül	-11.3423
▁etrafımızdaki	-11.3423
▁Görme	-11.3423
▁öğretmenlerin	-11.3424
▁tavır	-11.3424
▁verilmiş	-11.3425
▁Titan	-11.3425
▁gezegenimizi	-11.3425
yy	-11.3427
▁satan	-11.3431
▁Patlama	-11.3432
▁dilinde	-11.3432
miyorsunuz	-11.3434
▁objeler	-11.3434
▁yönünü	-11.3435
▁isimleri	-11.3441
▁santral	-11.3443
▁dayanır	-11.3445
▁mesajlar	-11.3445
▁hayalini	-11.3445
▁katılan	-11.3449
▁dürtü	-11.3451
sünüz	-11.3451
▁seçtim	-11.346
▁medyada	-11.3461
▁ettirmek	-11.3461
▁vuruş	-11.3467
▁ateşi	-11.3469
▁gözünde	-11.347
▁katıldım	-11.3472
▁konumu	-11.3472
▁asılı	-11.3473
▁merkezli	-11.3476
▁yetiş	-11.348
▁emeklilik	-11.3481
▁kavramlar	-11.3484
▁koyabilir	-11.3487
▁odaklanmak	-11.3491
▁seçtiği	-11.3491
▁laboratuvarı	-11.3493
▁engelleye	-11.3493
ugh	-11.3494
▁patron	-11.3495
▁Ortak	-11.3496
▁büyüdük	-11.3497
▁tüy	-11.3501
▁şekl	-11.3502
▁dirençli	-11.3503
▁öğretir	-11.3506
▁istemek	-11.3506
▁harfi	-11.3508
▁soracak	-11.3509
▁Günde	-11.351
▁birkaçı	-11.3511
▁parçacık	-11.3514
▁konuşmuyor	-11.3518
zaman	-11.3519
▁silahı	-11.3522
▁Kor	-11.3524
▁kısmının	-11.3524
▁gökyüzünde	-11.3527
ydılar	-11.3529
▁olsak	-11.3531
hri	-11.3532
▁ritmi	-11.3538
▁çocuklarınız	-11.3539
bilirdi	-11.3541
▁bilirsin	-11.3548
▁dağlar	-11.3549
▁sıkışı	-11.3556
▁yarattığımız	-11.3557
▁Lab	-11.356
▁yapabileceğim	-11.356
▁güdü	-11.3561
▁kaldığını	-11.3561
▁Ste	-11.3563
▁kuşak	-11.3565
sey	-11.3566
▁taksi	-11.3566
▁kadınla	-11.3568
abildi	-11.3575
aklı	-11.3577
▁değişimler	-11.3577
▁geliştirir	-11.3578
▁yöneticisi	-11.3579
▁sokağ	-11.3583
tis	-11.3584
▁düşünmüş	-11.3588
▁virüsün	-11.3589
▁kitab	-11.3591
▁Anlat	-11.3591
▁odaklanmış	-11.3593
▁kürek	-11.3593
▁organlar	-11.3594
MS	-11.3596
▁bağları	-11.3599
▁kararları	-11.36
▁çizgisi	-11.3601
▁Çocukları	-11.3602
▁kuruldu	-11.3603
leyeceğim	-11.3605
▁Sonsuz	-11.3609
▁uğraşmak	-11.3611
▁karşılaşır	-11.3613
▁göm	-11.3615
▁dalgalar	-11.3616
landırıyor	-11.3616
emem	-11.3621
▁parçasıdır	-11.3622
▁neresi	-11.3624
.5	-11.3629
eographic	-11.363
▁Muhammed	-11.363
▁ipuçları	-11.363
▁mektubu	-11.363
▁montaj	-11.363
▁müslüman	-11.363
▁santimetre	-11.363
▁soykırım	-11.363
▁trajik	-11.363
▁entropi	-11.363
▁kıvrıl	-11.363
▁mahrum	-11.363
▁röntgen	-11.363
▁Teksas	-11.363
▁İlaç	-11.363
▁Sıcak	-11.363
▁Fazla	-11.363
▁Leonardo	-11.363
▁karides	-11.363
▁Sınır	-11.363
▁hidro	-11.363
▁Yaptıkları	-11.363
▁sıçan	-11.363
▁Mike	-11.3631
▁ipek	-11.3631
▁icadı	-11.3631
▁alıştırma	-11.3632
▁yaşlandık	-11.3632
abiliyordu	-11.3633
▁Karanlık	-11.3635
▁verelim	-11.3635
▁anlarsınız	-11.3636
▁göremezsiniz	-11.3637
▁izleyin	-11.3637
▁kurucu	-11.3638
▁aydınlatma	-11.3638
▁öde	-11.3639
▁Düzen	-11.364
▁birleşimi	-11.3641
▁yapacaklarını	-11.3644
▁kültürler	-11.3646
▁mümkündür	-11.3649
▁yazmış	-11.365
▁kolon	-11.3652
▁dönemin	-11.3653
▁görmekte	-11.3653
▁harcadığı	-11.3655
ulu	-11.366
Bu	-11.3661
▁olmamış	-11.3662
mazdı	-11.3662
▁memnuniyet	-11.3663
▁döndürü	-11.3663
▁hırsız	-11.3664
▁yaratıyoruz	-11.3665
▁çevresindeki	-11.3667
▁sistemimizi	-11.367
▁yorumlama	-11.3671
▁alabiliriz	-11.3672
▁tutmaya	-11.3673
▁yapılandır	-11.3673
▁yığını	-11.3675
▁statü	-11.3679
▁detaylar	-11.368
▁kaçma	-11.3682
▁isimlerini	-11.3685
tılar	-11.3689
▁bedeli	-11.3689
▁otuz	-11.369
▁rolünü	-11.369
80	-11.3692
▁kırıklığı	-11.3692
▁RNA	-11.3693
▁istemişti	-11.3694
▁sağlamaya	-11.3694
▁yöntemle	-11.3697
▁yazıyordu	-11.3701
▁sözünü	-11.3702
▁iplik	-11.3703
▁yürü	-11.3703
▁kaydetme	-11.3703
▁harcar	-11.3705
▁yaşamlarını	-11.3707
▁dolaşıyor	-11.3708
▁İnsanlık	-11.3712
▁ihtiyaçlarını	-11.3712
▁1.5	-11.3713
▁bla	-11.3716
▁almaları	-11.3717
▁platformu	-11.3722
▁çıkarmaya	-11.3727
▁eylemleri	-11.3729
▁Kuş	-11.3729
▁ikimiz	-11.3732
▁olmadığımız	-11.3734
▁edemez	-11.3734
▁Chi	-11.3736
▁Pra	-11.3736
▁çalışmada	-11.374
lacağını	-11.3742
▁seyler	-11.3748
▁anları	-11.3749
eger	-11.3751
▁baktığı	-11.3752
▁kaldırmak	-11.3752
▁amacımız	-11.3752
▁midir	-11.3754
▁temsili	-11.3757
▁kapağı	-11.3759
▁gözün	-11.3767
ons	-11.3767
acağına	-11.377
▁kullanmış	-11.3772
▁olabilirim	-11.3775
▁kaldırdı	-11.3777
▁birbirleri	-11.3779
▁kendinden	-11.3785
▁açım	-11.3788
▁gördüğünüzde	-11.3789
▁düzeyinde	-11.3791
▁karıştırma	-11.3792
▁korun	-11.3797
▁vermedi	-11.3797
▁Etrafı	-11.38
▁bulundur	-11.3805
cilerin	-11.3805
▁yaklaşıyor	-11.3808
▁mikrop	-11.3813
▁mesajları	-11.3815
▁beste	-11.3815
hir	-11.3815
ight	-11.3816
▁tart	-11.3816
▁aktarma	-11.3817
▁Gay	-11.3818
▁boyutlar	-11.3818
▁Lider	-11.3826
ham	-11.3827
▁gezegenimiz	-11.3828
▁değiştirmemiz	-11.383
▁350	-11.3831
▁set	-11.3832
▁dilimi	-11.3834
▁Homo	-11.3836
kav	-11.3838
▁verilerini	-11.384
▁kabullenme	-11.384
▁resimlerini	-11.3843
▁şekillendirme	-11.3847
▁dersin	-11.385
▁çarptı	-11.385
▁beceriler	-11.3851
▁tav	-11.3851
▁hiper	-11.3851
▁Linu	-11.3852
▁Danimarka	-11.3852
▁Disney	-11.3852
▁Stephen	-11.3852
▁asansör	-11.3852
▁beyzbol	-11.3852
▁buzdolabı	-11.3852
▁böbrek	-11.3852
▁müfredat	-11.3852
▁pizza	-11.3852
▁yelpaze	-11.3852
▁çeyrek	-11.3852
▁Şaşırtıcı	-11.3852
▁kraliçe	-11.3852
▁Tunus	-11.3852
▁fizyoloji	-11.3852
▁misafir	-11.3852
▁yelken	-11.3852
▁rutin	-11.3852
▁Hukuk	-11.3852
▁Fakir	-11.3852
▁panik	-11.3852
▁turuncu	-11.3853
▁keşfediyor	-11.3853
▁isteyecek	-11.3853
▁Birbirimiz	-11.3853
▁bizzat	-11.3853
▁nerdeyse	-11.3853
▁düşünürüm	-11.3853
▁damga	-11.3854
▁cephe	-11.3854
enüz	-11.3855
▁diger	-11.3856
▁toplan	-11.3856
▁1900	-11.3856
▁safha	-11.3856
emin	-11.3857
▁dolaşan	-11.3859
▁Hawaii	-11.3859
▁görüşlü	-11.386
▁eylemi	-11.3861
▁sığır	-11.3861
▁yakalan	-11.3862
▁surat	-11.3863
▁adlandırdığımız	-11.3864
▁Tesl	-11.3864
▁yor	-11.3866
▁sakın	-11.3867
▁Üz	-11.3867
▁biç	-11.3868
▁EM	-11.3869
▁Başlangıçta	-11.3869
▁başlarsınız	-11.387
▁Saray	-11.3871
▁Rose	-11.3871
▁bitkileri	-11.3872
▁oğlumu	-11.3873
▁şizofreni	-11.3873
▁gerekçe	-11.3875
▁Ordu	-11.3875
▁sağır	-11.3875
▁değiştirilmiş	-11.3878
▁geldiğimizde	-11.3878
▁Ap	-11.3885
▁anlaşılır	-11.3889
▁denetle	-11.389
▁Au	-11.3891
▁heyecanlandır	-11.3893
▁şiiri	-11.3896
▁Mas	-11.3896
▁politikaları	-11.3897
▁emir	-11.3899
▁körü	-11.3904
▁problemini	-11.3909
▁özetle	-11.3916
▁Anti	-11.3919
▁arkadaşlarımın	-11.392
▁tasarlandı	-11.3922
▁kaynaklana	-11.3924
▁gününü	-11.3924
▁edebilirdi	-11.3925
▁virüsler	-11.3926
▁yollarda	-11.3926
▁ediyorlardı	-11.3926
▁belirler	-11.3927
▁koydular	-11.3929
▁verebilecek	-11.3931
lmalıyız	-11.3934
▁çıkardığımız	-11.3935
▁sorununu	-11.3935
▁Mah	-11.3935
▁duvarları	-11.3937
▁inceledi	-11.3938
▁biriyim	-11.3939
▁birincisi	-11.3939
▁silin	-11.3941
▁sure	-11.3942
▁ayrımı	-11.3947
▁ailemi	-11.395
▁Laboratuvarı	-11.3951
▁55	-11.3957
▁güvence	-11.3958
▁öğretim	-11.3959
▁televizyonu	-11.3959
uri	-11.3962
▁yürütme	-11.3963
▁uçakta	-11.3964
▁Bali	-11.3964
▁makinalar	-11.3965
▁çalıştılar	-11.3968
▁istatistikler	-11.3969
hücre	-11.3969
▁şunlar	-11.397
aktif	-11.397
▁jeo	-11.3973
▁gerçekleştirme	-11.3976
▁çocuklarımızın	-11.3979
▁44	-11.3983
▁ortağı	-11.3983
lıyorsunuz	-11.3983
▁anlaş	-11.3985
▁edilmişti	-11.3986
▁yükseliyor	-11.3986
kine	-11.3987
▁kadarı	-11.3987
▁mutfak	-11.3987
▁kala	-11.3989
▁izlemeye	-11.3992
▁Geçmişte	-11.3992
▁ettiğimizde	-11.3998
loji	-11.3998
▁Kendinizi	-11.4
▁kahramanı	-11.4001
▁delikler	-11.4005
▁Pop	-11.4006
▁riskini	-11.4006
▁yapmadığı	-11.4007
labildiği	-11.4008
▁ayakkabıları	-11.4015
▁petrolün	-11.4015
▁içki	-11.4017
▁dinin	-11.4018
▁Hayvanlar	-11.4024
lamazsınız	-11.4025
cağı	-11.4027
▁fazladır	-11.4027
▁sevdiğiniz	-11.403
▁istekleri	-11.403
▁48	-11.4033
▁benzemiyor	-11.4034
▁Oy	-11.404
▁yaptığınızı	-11.4042
▁Hans	-11.4045
▁problemlerin	-11.4046
bilirsiniz	-11.4046
▁kuşa	-11.4046
▁kuruluşlar	-11.4046
▁yarasa	-11.4048
▁olduklarında	-11.4048
▁andan	-11.4049
▁iniyor	-11.4055
▁şansınız	-11.4059
rop	-11.4059
▁Şirketi	-11.406
▁fırla	-11.4061
▁tanıdığım	-11.4063
mıyordum	-11.4064
▁yemin	-11.4065
▁izledik	-11.4066
▁hissettiği	-11.4066
▁alay	-11.4067
▁duyacak	-11.4068
▁Başta	-11.4074
▁Kong	-11.4078
▁alabilecek	-11.4078
▁Apollo	-11.4079
▁Rüzgar	-11.4079
▁apartman	-11.4079
▁implant	-11.4079
▁kriter	-11.4079
▁mahremiyet	-11.4079
▁randevu	-11.4079
▁Köpek	-11.4079
▁borcu	-11.4079
▁domates	-11.4079
▁veritabanı	-11.4079
▁zahmet	-11.4079
▁milimetre	-11.4079
▁tasarlıyor	-11.4079
▁kucuk	-11.408
▁Yüzlerce	-11.408
▁simdi	-11.408
▁kayboluyor	-11.408
▁dileğim	-11.4081
▁kesimi	-11.4081
▁selam	-11.4083
▁yapılabilecek	-11.4083
▁gürültülü	-11.4083
▁oynadı	-11.4084
▁dönersek	-11.4084
▁bulduğu	-11.4084
▁karşılaştığım	-11.4084
▁yönleri	-11.4086
▁ruhsal	-11.4087
▁Br	-11.4089
▁balta	-11.4089
▁çarpan	-11.4089
▁sorarsanız	-11.4089
▁Parti	-11.409
▁2002	-11.4094
liyordu	-11.4096
▁edemeyi	-11.4096
▁doluydu	-11.4098
▁yapmazsa	-11.41
▁arıyoruz	-11.41
▁inandığım	-11.41
▁gökyüzü	-11.4101
▁giderler	-11.4101
▁tırmanma	-11.4101
▁ölçeği	-11.4102
▁hemşireler	-11.4103
onu	-11.4108
▁ölümleri	-11.4108
▁Coca	-11.4109
▁dalgası	-11.411
diğimizi	-11.411
▁sezon	-11.4111
tion	-11.4112
▁haklar	-11.4116
▁ekonomistler	-11.4117
▁kadarını	-11.4117
10	-11.4118
▁hareketsiz	-11.4119
▁kelimelerin	-11.4119
right	-11.4122
▁yazmıştı	-11.4123
lmüş	-11.4125
bildim	-11.4126
▁IM	-11.4128
▁ulaşabilir	-11.4129
▁çatışmalar	-11.4129
▁büyükbabam	-11.413
▁koyan	-11.4131
▁yaşadığınız	-11.4131
▁uzunluğu	-11.4133
▁sürecek	-11.4133
▁Cok	-11.4136
▁bitiyor	-11.4137
wan	-11.414
▁edeceği	-11.4145
kap	-11.4145
oh	-11.4146
▁bük	-11.4146
laştırmak	-11.4148
▁görüştü	-11.4149
▁ritim	-11.415
▁düşü	-11.4155
▁Nöro	-11.4156
▁suçu	-11.4156
▁beslemek	-11.4157
ligin	-11.4157
▁herkesten	-11.4158
▁Eşi	-11.4158
▁çıkışı	-11.416
▁zenginliği	-11.4161
▁ortama	-11.4162
▁taşınabilir	-11.4162
▁dinleyi	-11.4162
▁sistemlerini	-11.4166
▁yapacağımızı	-11.4167
▁ölçme	-11.4169
▁vurdu	-11.4169
▁duydu	-11.417
▁uçur	-11.4171
▁yorumlar	-11.4171
▁geçişi	-11.4173
▁por	-11.4174
▁yarama	-11.4186
▁olanın	-11.4188
sler	-11.4194
gini	-11.4195
▁köyün	-11.4198
▁yapmanızı	-11.4199
▁deha	-11.42
▁Gri	-11.42
▁robotların	-11.4203
▁soya	-11.4206
leyebiliriz	-11.4207
▁kimseyi	-11.4208
▁turist	-11.4211
▁atlat	-11.4213
▁Kendimiz	-11.4213
daydım	-11.4213
▁Diyor	-11.4214
▁başarama	-11.4214
▁çalmak	-11.4215
▁öğrenecek	-11.4216
▁ruhunu	-11.4216
▁savaştı	-11.4218
▁satıl	-11.422
▁yaptığınızda	-11.422
▁işsiz	-11.4223
▁mülteciler	-11.4228
▁şaşkın	-11.4231
▁Ortada	-11.4231
▁kullanıldığını	-11.4233
▁sağlıyorlar	-11.4235
▁gerekmez	-11.4235
▁meclis	-11.4239
mezdi	-11.4241
▁eksen	-11.4242
▁parçacıkları	-11.4245
litik	-11.4247
▁giyme	-11.4248
▁kararlı	-11.4251
▁yüzeyini	-11.4253
▁okumayı	-11.4253
▁konunu	-11.4254
ardı	-11.4256
takım	-11.4256
▁ekranın	-11.4257
▁kor	-11.4258
▁diren	-11.4259
▁tuttuğu	-11.426
▁tutkum	-11.426
▁görünüşü	-11.4265
▁değişikliğini	-11.4268
▁sürükle	-11.4269
▁sevdi	-11.4271
▁etkileşimi	-11.4273
▁grupların	-11.4274
▁sav	-11.4281
OL	-11.4282
▁yapabileceğini	-11.4286
mada	-11.4286
▁Gid	-11.4288
▁verimliliği	-11.4298
amıyorlar	-11.43
▁geçtiğini	-11.4303
▁yaratabil	-11.4303
list	-11.4304
▁düzeltmek	-11.4306
▁hara	-11.4306
▁dilek	-11.4306
▁bağır	-11.4307
▁işlevi	-11.431
▁Elimizde	-11.431
▁hatası	-11.4311
▁objeleri	-11.4311
▁Bekle	-11.4312
▁diyabet	-11.4312
▁işgücü	-11.4312
▁kaplumbağa	-11.4312
▁teyze	-11.4312
▁Çoğunlukla	-11.4312
▁sağduyu	-11.4312
▁feet	-11.4312
▁ihmal	-11.4312
▁Brooklyn	-11.4312
▁buğday	-11.4312
▁sperm	-11.4312
▁döl	-11.4312
▁Ürün	-11.4312
▁Milyonlar	-11.4312
▁yorucu	-11.4312
▁gümüş	-11.4312
▁olağandışı	-11.4313
▁çıkıntı	-11.4313
▁nazar	-11.4313
▁alçak	-11.4313
▁paylaştığımız	-11.4313
▁türe	-11.4314
▁tersini	-11.4315
▁tutup	-11.4315
▁İst	-11.4315
▁başlayacağız	-11.4316
▁Johnson	-11.4317
▁JF	-11.4317
şte	-11.4318
▁sevdiğimiz	-11.4319
▁Cent	-11.432
▁konuşalım	-11.4321
▁bilmem	-11.4321
▁tarafinda	-11.4324
▁mes	-11.4324
▁oturmak	-11.4325
▁varolan	-11.4325
▁yemeğin	-11.4326
▁açılan	-11.4326
▁Çek	-11.4326
▁duş	-11.4326
ebiliyorlar	-11.4328
▁öldüren	-11.433
▁kuran	-11.4331
▁anayasa	-11.4332
25	-11.4332
▁ayrıldı	-11.4335
▁buluşu	-11.4335
▁eşittir	-11.4336
▁çevreleye	-11.4336
▁edebiliyoruz	-11.4337
▁bitiş	-11.4337
▁bilime	-11.4339
▁kurallarını	-11.434
▁saklay	-11.434
▁sağlayabil	-11.4343
▁Bugünkü	-11.4345
▁koymaya	-11.4346
▁yapabildiği	-11.4346
▁kitabında	-11.4347
DI	-11.4347
▁saldırısı	-11.435
▁çizer	-11.4351
▁öğretmenin	-11.4351
▁yaklaşma	-11.4351
▁Deneyim	-11.4352
▁Dil	-11.4355
▁getirebil	-11.4357
▁edemedi	-11.4357
▁açacak	-11.4359
lanmaya	-11.436
▁zamanım	-11.4361
▁götürecek	-11.4361
▁aklında	-11.4363
▁tablosu	-11.4364
mazsa	-11.4365
▁algoritmalar	-11.4365
▁kurduğumuz	-11.4365
▁korktuğu	-11.4368
▁Mesele	-11.437
▁sadakat	-11.4371
▁kapatmak	-11.4372
▁kariyerim	-11.4374
▁doğduğum	-11.4374
▁olayda	-11.4375
▁katılımı	-11.4376
▁gelirli	-11.4377
▁çalışanı	-11.4379
▁erime	-11.4381
▁düşüşü	-11.4382
▁yapacağınız	-11.4386
▁mantıksız	-11.4388
▁Görev	-11.4392
lacağı	-11.4394
▁dibinde	-11.4394
bileceği	-11.4395
▁masrafları	-11.4396
▁Test	-11.4396
▁gücümüzü	-11.4398
liyoruz	-11.4399
▁Alt	-11.44
▁burnu	-11.4401
▁açıklık	-11.4406
lmaya	-11.4407
▁anladığım	-11.4407
▁giyin	-11.4409
ildiğini	-11.441
▁olabilmek	-11.441
▁eyaleti	-11.4411
▁doğduğu	-11.4411
▁gösterdik	-11.4412
▁atıp	-11.4413
▁kimler	-11.4413
▁keşfettiğimiz	-11.442
▁görmesi	-11.442
▁Düşün	-11.4425
▁metod	-11.4426
▁üz	-11.4427
▁boyunda	-11.4429
▁geleceğimiz	-11.4429
▁pili	-11.4432
▁kaydetti	-11.4432
ırdım	-11.4432
▁yönetiyor	-11.4434
ebileceğim	-11.4434
▁okyanusu	-11.4435
▁bahsettim	-11.4437
▁ço	-11.4438
▁kusur	-11.4438
▁kesit	-11.4438
▁farkli	-11.4448
BM	-11.4448
matik	-11.445
▁paylaşır	-11.445
▁72	-11.445
▁aktarmak	-11.4452
▁sınıfın	-11.4453
▁şiddetle	-11.4453
▁planları	-11.4455
▁gönderildi	-11.4458
▁atıkları	-11.4458
tikleri	-11.4465
▁örgü	-11.4465
▁çözer	-11.4466
▁yansıma	-11.4466
▁ordusu	-11.4471
▁içeriğin	-11.4471
▁Hastalık	-11.4473
▁gösterdiler	-11.4474
▁burs	-11.4475
▁seyirciler	-11.4476
▁yapılacağın	-11.4478
▁üstte	-11.4479
▁şehirdeki	-11.4479
istler	-11.4483
▁görevler	-11.4485
▁ederdi	-11.4486
saydım	-11.4486
▁kasları	-11.4486
▁oranlarını	-11.4487
▁türlerinin	-11.4488
abileceğimizi	-11.4491
▁Mur	-11.4492
▁Okulda	-11.4496
▁hissettiğimiz	-11.4497
▁tanımlay	-11.4498
▁değişimleri	-11.4498
▁alandaki	-11.45
▁temelini	-11.4505
cuk	-11.4506
▁getirdiler	-11.4507
▁geometri	-11.451
▁keşfetmeye	-11.4514
▁teorik	-11.4516
▁izleri	-11.4517
▁öğrenmiş	-11.452
▁dergisinde	-11.4521
▁vermeme	-11.4522
▁dolaştı	-11.4522
larınızda	-11.4524
▁kelimesinin	-11.4524
▁ayırıyor	-11.4525
▁senenin	-11.4525
▁girişimi	-11.4526
▁bölün	-11.4528
▁sektöründe	-11.4529
▁kanunu	-11.453
▁SP	-11.453
▁gördükleriniz	-11.453
▁dü	-11.4535
▁robotları	-11.4535
▁Tah	-11.4536
▁çocuklarımızı	-11.4537
▁pul	-11.4537
▁geçmesi	-11.4537
lüğünü	-11.4538
▁köpeği	-11.4541
▁Şimdilerde	-11.4541
▁memur	-11.4542
▁birşeyleri	-11.4542
▁Pas	-11.4543
▁Ted	-11.4544
▁Akıl	-11.4544
▁karbonu	-11.4547
▁seçiyor	-11.4548
▁Atlanta	-11.455
▁Ağustos	-11.455
▁CRISPR	-11.455
▁Clinton	-11.455
▁Karmaşık	-11.455
▁Nüfus	-11.455
▁Tanzanya	-11.455
▁Yağmur	-11.455
▁embriyo	-11.455
▁nispet	-11.455
▁rüzgâr	-11.455
▁toprağa	-11.455
▁transistör	-11.455
▁tuğla	-11.455
▁isabet	-11.455
▁Şüphe	-11.455
▁Yabancı	-11.455
▁Yunus	-11.455
▁zavallı	-11.455
▁ulke	-11.455
▁Temmuz	-11.455
▁icra	-11.455
▁Aşama	-11.455
▁stok	-11.455
▁ayrımcılık	-11.455
▁jeoloji	-11.4551
▁metabolizma	-11.4551
▁bulanık	-11.4551
▁toplulukta	-11.4551
▁1930	-11.4551
▁leke	-11.4551
▁tutucu	-11.4552
▁dışarda	-11.4552
▁Büyükanne	-11.4553
▁vali	-11.4553
▁alışkın	-11.4553
▁Mich	-11.4554
▁Long	-11.4554
▁açıklayacağım	-11.4554
▁Yarı	-11.4554
▁havalandırma	-11.4555
▁söylenir	-11.4555
▁1999	-11.4555
▁güçsüz	-11.4555
▁mahallede	-11.4555
▁basıncı	-11.4557
▁Bildiğimiz	-11.4557
▁planlıyor	-11.4557
▁yapamazsınız	-11.4557
▁aksiyon	-11.4558
rika	-11.4558
▁LG	-11.4559
▁süreliğine	-11.4559
▁deneyelim	-11.456
▁izlerken	-11.4561
▁Afrikalılar	-11.4561
▁çekilen	-11.4561
▁karışım	-11.4562
▁beyinleri	-11.4563
▁tanıştır	-11.4565
▁uzmanlık	-11.4565
llah	-11.4566
▁dışa	-11.4566
▁konuşuyorlar	-11.4567
▁yılları	-11.4568
▁CR	-11.457
▁öğrendiği	-11.4571
▁zorundalar	-11.4572
▁tesisi	-11.4574
▁uydular	-11.4574
▁konuşmam	-11.4575
▁şuradaki	-11.4578
olly	-11.4578
▁geliştirdiği	-11.4579
▁alttaki	-11.4581
▁kola	-11.4582
▁doktorların	-11.4584
▁yetisi	-11.4585
▁Tel	-11.4585
▁neresinde	-11.4586
▁Asli	-11.4587
▁medeniyeti	-11.4588
leyebilirsiniz	-11.4588
▁saçmalık	-11.459
▁editör	-11.4591
şer	-11.4591
▁Çoğunuz	-11.4593
▁Isa	-11.4594
▁İkisi	-11.4594
▁Ateş	-11.4595
▁heyecanlıyı	-11.4595
▁tümünü	-11.4596
▁önemseme	-11.4596
▁testler	-11.4597
erseniz	-11.4597
▁yaymak	-11.4598
▁vatandaşları	-11.4599
▁düzlem	-11.4601
▁Yapmak	-11.4602
▁bulunduğum	-11.4607
▁öğrenen	-11.4608
▁birikim	-11.4608
▁isteyeceğim	-11.4609
▁potansiyelini	-11.4611
▁faktörler	-11.4611
▁Barış	-11.4611
▁ulaşacak	-11.4612
bilecek	-11.4613
leştirici	-11.4613
▁Yüzey	-11.4614
▁keser	-11.4615
▁arayış	-11.4615
▁bölgesine	-11.4615
ümüzün	-11.4617
▁kitapların	-11.4618
▁gülü	-11.462
▁kullanabiliyor	-11.462
▁gelecektir	-11.4623
▁bahsedil	-11.4624
▁yakalay	-11.4625
▁Resmi	-11.4625
▁hissettiğiniz	-11.4626
rizon	-11.4629
▁yaprakları	-11.463
arth	-11.4631
lığımız	-11.4634
▁sebebini	-11.4635
▁açıları	-11.4635
▁vücud	-11.4636
▁izleyiciler	-11.4637
▁Tez	-11.4637
▁şeyde	-11.464
kül	-11.464
▁görevleri	-11.464
▁verimlilik	-11.4642
▁derse	-11.4644
▁girmeye	-11.4647
▁paylaşımı	-11.4647
▁amatör	-11.4647
▁atmosferin	-11.4649
▁evli	-11.4649
▁bağımlılığı	-11.465
▁katmanı	-11.4651
▁kalabilir	-11.4657
▁söylerse	-11.4657
▁oto	-11.4662
▁memeliler	-11.4666
▁geliştirilmiş	-11.4666
▁açtık	-11.4667
▁duygusunu	-11.4667
▁zorladı	-11.4668
▁davranışını	-11.4669
▁rahatlat	-11.467
▁oluşturduğumuz	-11.467
▁söylediğini	-11.4671
▁diploma	-11.4673
amıyorum	-11.4673
▁olduğuyla	-11.4673
▁gü	-11.4673
▁hatalı	-11.4676
▁değişmeye	-11.4677
▁şaş	-11.4678
▁yatırımlar	-11.4678
▁çıkarsa	-11.4683
Amerikalı	-11.4683
▁adamdı	-11.4685
ümüzü	-11.4686
▁yakma	-11.4688
▁Dışarıda	-11.4688
▁fakirlik	-11.469
▁yükselme	-11.4692
işini	-11.4695
bilirim	-11.4696
▁konuşmada	-11.4697
▁Wo	-11.4697
▁Buz	-11.4697
▁Hakları	-11.4698
▁uzlaşma	-11.4701
stil	-11.4702
▁karalama	-11.4704
▁olduğunuzda	-11.4706
▁anladığımız	-11.4707
▁yanılma	-11.4709
lmak	-11.471
▁hissettiriyor	-11.4714
▁ekledi	-11.4718
▁soruların	-11.4718
▁sınırlama	-11.4721
▁yapamadığı	-11.4721
▁gözlerinizi	-11.4723
▁Gitti	-11.4723
▁hesapla	-11.4726
▁Yukarı	-11.4729
rsek	-11.473
▁elektriği	-11.473
▁bulutu	-11.4731
▁basladi	-11.4732
▁gerçekleşmesi	-11.4733
▁dergisi	-11.4735
▁kıyısında	-11.4742
▁uçağ	-11.4744
,3	-11.4745
▁Sar	-11.4746
▁havuz	-11.4746
▁iklimi	-11.4746
▁toplandı	-11.475
▁soluk	-11.4751
▁Doku	-11.4755
▁sandığı	-11.4758
▁zamanını	-11.4759
▁Haber	-11.4759
▁ödemek	-11.4761
way	-11.4762
▁gördüler	-11.4763
▁bilgimiz	-11.4764
▁beslen	-11.4766
▁çocuğunuz	-11.4767
▁Aksi	-11.4767
▁rezerv	-11.4768
▁hedefleri	-11.4768
▁güveni	-11.4768
▁ulaşama	-11.477
▁paha	-11.4774
▁üstel	-11.4775
▁alarm	-11.4776
uke	-11.4778
▁hack	-11.4779
▁pop	-11.478
▁adresi	-11.4781
▁istediğinizi	-11.4784
▁bugünlerde	-11.4785
▁denizde	-11.4787
HC	-11.4787
▁varlıkları	-11.4787
sky	-11.479
▁Vücudu	-11.479
▁simülasyon	-11.4791
▁Yapa	-11.4791
▁kaçış	-11.4793
▁Ciddi	-11.4794
▁Davranış	-11.4794
▁Vatandaş	-11.4794
▁cenaze	-11.4794
▁demografik	-11.4794
▁dolaylı	-11.4794
▁kıvrım	-11.4794
▁orjinal	-11.4794
▁sarhoş	-11.4794
▁sörf	-11.4794
▁Kilise	-11.4794
▁metrekare	-11.4794
▁Carolina	-11.4794
▁köpekbalığı	-11.4794
▁Sınıf	-11.4794
▁ıslık	-11.4794
▁hacim	-11.4794
▁erdem	-11.4794
▁Bakanı	-11.4794
▁yorgun	-11.4794
▁bölünmüş	-11.4794
▁Dunya	-11.4795
▁Sky	-11.4795
▁yemeğe	-11.4795
▁2014	-11.4796
▁doğuşu	-11.4797
▁şeylerde	-11.4797
▁işletim	-11.4797
▁patlat	-11.4798
▁yayınlanan	-11.4798
▁sağlayıcı	-11.4799
▁US	-11.4799
▁gözetim	-11.48
▁ölmek	-11.4801
▁ortalıkta	-11.4803
▁atladı	-11.4803
▁dinleyen	-11.4803
▁tuna	-11.4803
▁daral	-11.4805
▁uret	-11.4806
▁tapir	-11.4807
▁Görsel	-11.4807
▁yaşını	-11.4807
abildiğini	-11.4809
▁deneyimleme	-11.481
▁mülkiyet	-11.481
▁Suud	-11.481
▁altını	-11.4813
▁biziz	-11.4813
▁gezdir	-11.4814
▁diğerinin	-11.4815
▁yapılmıştı	-11.4817
▁görüntüsünü	-11.4819
▁yüklü	-11.4819
▁paylaşan	-11.4819
▁parkı	-11.482
▁olabilme	-11.4824
▁ekibin	-11.4827
▁atla	-11.4828
▁devrimin	-11.4828
ımızdan	-11.4829
▁karma	-11.483
ilmis	-11.4831
▁kökeni	-11.4831
▁esna	-11.4832
▁Rand	-11.4834
▁şüpheli	-11.4834
▁döndüğünü	-11.4835
▁Neler	-11.4835
▁odun	-11.4835
▁karışma	-11.4837
▁param	-11.484
▁etmektedir	-11.4842
▁kopyalama	-11.4842
lmasını	-11.4842
▁yatakta	-11.4843
▁başlıyorum	-11.4845
▁söylediğimde	-11.4845
▁cami	-11.4847
▁yazmayı	-11.4847
▁veriliyor	-11.4849
▁karşılaşıyor	-11.4849
layabilmek	-11.4851
melerini	-11.4853
▁ısır	-11.4855
lığından	-11.4856
▁çoğumuzun	-11.4857
▁sürücüsü	-11.4858
▁verirken	-11.4859
▁çalıştığınız	-11.4863
▁yerleştiriyor	-11.4863
▁Bağ	-11.4863
▁zamanları	-11.4864
▁endişeli	-11.4864
▁pekço	-11.4867
▁kütlesi	-11.4867
▁bakmamız	-11.4872
kalı	-11.4873
▁gelse	-11.4875
▁izini	-11.4876
▁teşhisi	-11.4876
▁kalkma	-11.4878
▁insanoğlu	-11.488
▁karşılığı	-11.4882
▁hatırlamak	-11.4884
▁yapacağımı	-11.4884
▁yapabilirse	-11.4885
▁düşündüklerini	-11.4886
▁hip	-11.4889
16	-11.4891
▁herkesle	-11.4891
▁soku	-11.4896
▁dökme	-11.4896
▁Oğlum	-11.4897
▁dönmeye	-11.49
▁Geç	-11.4902
▁İranlı	-11.4903
well	-11.4904
lanmak	-11.4905
▁balinalar	-11.4906
fil	-11.4908
▁beynimizi	-11.4909
▁yürümek	-11.4909
▁fabrikası	-11.491
▁uluslar	-11.4914
▁inç	-11.4915
▁istasyonu	-11.4915
▁şefi	-11.4916
▁kabus	-11.4917
▁söylemeyi	-11.4918
▁güldü	-11.4922
▁çekecek	-11.4923
▁etkisiz	-11.4924
▁çocuklardan	-11.4927
▁sahası	-11.4932
▁öğrencinin	-11.4933
▁eşiğinde	-11.4934
▁üzül	-11.4934
▁anlatıcı	-11.4934
masıdır	-11.4935
▁döneme	-11.4936
▁hazırlamak	-11.4937
▁benziyordu	-11.4938
▁imaj	-11.4939
▁sözde	-11.4942
▁gerçekleştiği	-11.4942
▁başlatma	-11.4943
▁anlattıkları	-11.4948
▁filan	-11.4951
yorduk	-11.4954
▁Sudan	-11.4956
▁Yarın	-11.4956
▁sosyo	-11.4957
▁deneyde	-11.4957
▁Gülme	-11.4958
▁fenomeni	-11.4964
▁yükselişi	-11.4967
▁büyümüş	-11.4967
▁bekliyordu	-11.4968
▁Hayatımda	-11.4969
▁etkiye	-11.4971
▁kazanmış	-11.4971
▁grubunu	-11.4973
▁Yaz	-11.4978
▁diyeceğim	-11.4978
▁yolunun	-11.4982
▁Ebeveynler	-11.4983
▁ekin	-11.4987
▁üretilmiş	-11.4988
▁başını	-11.4988
▁kaşı	-11.4991
▁çağın	-11.4991
▁hizmetler	-11.4994
▁ayrıldığı	-11.4995
▁ağa	-11.4996
▁çözmemiz	-11.4996
ğınızda	-11.4996
▁Leon	-11.4998
▁Hel	-11.5001
▁atlet	-11.5007
▁göstermiş	-11.5007
▁kalmayı	-11.5008
▁bölünme	-11.5009
▁düşünürler	-11.5015
▁alınması	-11.5018
▁Hayatım	-11.5018
▁sokmak	-11.5022
▁atıldı	-11.5025
▁kaydedil	-11.5026
▁bebeklerin	-11.5027
▁sonunu	-11.5028
▁sesimi	-11.5032
▁haksız	-11.5033
▁gördüğünü	-11.5033
▁küçümse	-11.5033
▁yerçekimi	-11.5036
▁İspanyol	-11.5037
▁inanmaya	-11.504
▁heyecanlıydı	-11.5042
▁oluşturuyorlar	-11.5043
▁aracını	-11.5043
▁beynine	-11.5044
▁obez	-11.5044
▁Konseyi	-11.5044
▁Portekiz	-11.5044
▁bayrağı	-11.5044
▁dublör	-11.5044
▁füzyon	-11.5044
▁habitat	-11.5044
▁harikulade	-11.5044
▁Şiddet	-11.5044
▁Mahkeme	-11.5044
▁vaaz	-11.5044
▁Hafta	-11.5044
▁berber	-11.5044
lışılmadık	-11.5044
▁esrar	-11.5044
▁Sinir	-11.5044
▁Maymun	-11.5045
▁kostüm	-11.5045
▁yapışkan	-11.5045
▁acele	-11.5045
▁kask	-11.5045
▁kilolu	-11.5045
▁tanıştık	-11.5046
▁yaptigi	-11.5046
▁çadır	-11.5046
▁Selam	-11.5046
▁kastediyorum	-11.5047
▁profil	-11.5047
▁alışkanlıkları	-11.5049
▁Hous	-11.5049
▁bırakıldı	-11.5049
▁Lego	-11.5049
▁bağlamında	-11.5049
▁edemezsiniz	-11.505
▁Libya	-11.5051
▁sağlayarak	-11.5051
▁öldürüldü	-11.5052
▁çöktü	-11.5052
▁bulursunuz	-11.5052
▁sınırsız	-11.5052
▁doyur	-11.5053
▁belirleyici	-11.5053
irim	-11.5055
▁bakılır	-11.5056
▁etrafımda	-11.5056
▁yerleştirilmiş	-11.5056
▁oluşturabiliriz	-11.5056
▁sınırların	-11.5058
▁Soldaki	-11.5059
▁kullanıp	-11.506
▁100,000	-11.5062
▁Adası	-11.5066
▁alışık	-11.5068
▁Fransızca	-11.5068
▁başlıyorsunuz	-11.5068
▁görürdü	-11.5069
gor	-11.507
▁koruyan	-11.5071
▁işletmeler	-11.5072
▁ped	-11.5073
▁kökten	-11.5074
lup	-11.5075
▁yazarken	-11.5075
▁kuralların	-11.5077
▁demeye	-11.5079
▁Nata	-11.5082
▁Biyo	-11.5082
Cola	-11.5083
▁geçirecek	-11.5084
▁kökenli	-11.5084
▁Koca	-11.5085
▁görevini	-11.5086
▁pazarı	-11.5087
▁aradığımız	-11.5089
▁etmelerini	-11.5089
▁nice	-11.5089
▁incelemeye	-11.509
▁Öğren	-11.5093
▁Buzul	-11.5096
▁hissettiğini	-11.5097
▁tahmini	-11.5097
▁dostu	-11.5098
▁Sokak	-11.5098
▁bahçesinde	-11.5098
▁stil	-11.5099
▁Shi	-11.5101
▁oluşturulmuş	-11.5101
okyo	-11.5103
▁bulunmuyor	-11.5106
▁genin	-11.5107
▁notlar	-11.511
ound	-11.5113
▁tanrım	-11.5113
anlayabilirsiniz	-11.5116
▁topar	-11.5116
▁plaka	-11.5117
▁fok	-11.5117
▁aşma	-11.5119
▁çekil	-11.5121
▁arttırıyor	-11.5121
▁endüstrisini	-11.5121
▁girdiğim	-11.5122
rol	-11.5122
▁zorluyor	-11.5124
▁Kür	-11.5133
▁başlarlar	-11.5136
ary	-11.5136
▁fareler	-11.5138
▁saklama	-11.5138
jo	-11.5138
▁bilmemiz	-11.5138
▁dünyamız	-11.5139
▁çevreci	-11.5139
▁çalışırlar	-11.5141
▁tutabilir	-11.5145
▁kıs	-11.5146
▁çizmek	-11.5151
▁18.	-11.5154
▁doğruluk	-11.5157
▁sirk	-11.5161
▁anlaşıldı	-11.5161
▁yuz	-11.5162
▁oranına	-11.5163
taşı	-11.5164
▁ayakkabılar	-11.5164
▁istemediği	-11.5165
▁biçimleri	-11.5165
▁trafiği	-11.5168
▁meta	-11.517
▁şansını	-11.5177
▁kodun	-11.5177
▁gözlerim	-11.5177
▁toplayı	-11.5179
▁ekonomide	-11.5184
leştirir	-11.5185
kini	-11.5187
▁birçoğunuz	-11.5187
▁bittiği	-11.5189
▁farkettik	-11.519
▁etse	-11.5191
▁yaptın	-11.5191
▁dostum	-11.5192
mezsek	-11.5194
▁Ram	-11.5197
▁alem	-11.5198
▁farklıydı	-11.5201
▁takıyor	-11.5208
▁Ders	-11.5209
▁Ladin	-11.5209
▁kısımları	-11.521
▁ağların	-11.5211
▁grupta	-11.5212
▁öğreniyorlar	-11.5212
▁eylemci	-11.5213
▁şahs	-11.5215
▁Kimi	-11.5216
▁Saf	-11.5216
▁girecek	-11.5219
cılığı	-11.5224
▁yapil	-11.5224
▁anlayacak	-11.5229
▁karakterleri	-11.5232
içi	-11.5236
▁evrimleşme	-11.5236
▁ülkesinde	-11.5239
▁görebileceği	-11.5242
malıyım	-11.5243
▁başlamamız	-11.5247
liyorlar	-11.5248
▁64	-11.525
▁Mad	-11.525
▁tasarladık	-11.5252
▁kalanlar	-11.5252
▁düşmüş	-11.5253
▁geçim	-11.5255
▁lezzet	-11.5256
▁uyarlama	-11.5257
▁dokusunu	-11.5259
▁organizasyonu	-11.526
all	-11.5262
▁gösterim	-11.5264
▁kurula	-11.5264
▁Aç	-11.5266
▁Başarı	-11.5266
▁Yolu	-11.5267
▁salonda	-11.5271
▁artırma	-11.5273
▁dizileri	-11.5273
▁yargılama	-11.5279
▁titreş	-11.5281
▁planda	-11.5286
▁tüketiyor	-11.5288
neyse	-11.5292
▁Del	-11.5294
▁yolumuz	-11.5296
▁açıklar	-11.5299
uther	-11.5299
▁STK	-11.53
▁alfabe	-11.53
▁atölye	-11.53
▁floresan	-11.53
▁kahvaltı	-11.53
▁kasırga	-11.53
▁sofistike	-11.53
▁çığlık	-11.53
▁Kolombiya	-11.53
▁ayrıştır	-11.53
▁melodi	-11.53
▁monte	-11.53
▁protokol	-11.53
▁tasarim	-11.53
angelo	-11.53
▁Düşük	-11.53
▁Harita	-11.53
▁Snow	-11.53
▁ihtiyar	-11.53
▁Prens	-11.5301
▁bloğu	-11.5301
▁kaşif	-11.5301
▁espri	-11.5301
▁beşinci	-11.5301
▁Yunanistan	-11.5301
▁ilgilendiren	-11.5301
▁motif	-11.5301
▁ziyan	-11.5301
▁imha	-11.5301
▁Cuma	-11.5301
▁Insanlar	-11.5301
▁karadelik	-11.5301
▁nakit	-11.5302
▁söylese	-11.5305
▁oturuyordu	-11.5306
▁önemsiyor	-11.5306
▁geçmişin	-11.531
▁ekonomisini	-11.531
▁aracılığı	-11.5311
▁veriyordu	-11.5311
cular	-11.5311
▁Düşünce	-11.5312
▁canına	-11.5313
▁zararsız	-11.5314
▁yaratabiliriz	-11.5315
▁moral	-11.5315
▁kılar	-11.5316
▁sis	-11.5316
▁aydınlanma	-11.5318
▁Kapa	-11.5319
▁bilmiyorlar	-11.532
▁Seks	-11.532
gie	-11.5322
▁istese	-11.5325
▁tutacak	-11.5327
▁düzene	-11.5327
▁maçı	-11.5328
▁güçler	-11.5328
▁soruyorlar	-11.5329
▁çiğ	-11.5329
▁ettikçe	-11.533
▁dükkanı	-11.5331
▁kurbanları	-11.5333
▁Temiz	-11.5334
▁üzüm	-11.5335
▁yeryüzünde	-11.5335
▁engelle	-11.5335
▁inanıyorlar	-11.5335
▁ES	-11.5337
▁kırp	-11.5339
▁balıkların	-11.534
▁benimki	-11.5341
▁koyduğumuz	-11.5343
▁geldiğim	-11.5344
ıyordum	-11.5346
▁vat	-11.5347
▁Meydanı	-11.5353
▁geçiyoruz	-11.5353
▁kırık	-11.5353
▁Filistinli	-11.5354
▁derdim	-11.5354
▁paylaşmaya	-11.5355
▁Str	-11.5356
▁zanned	-11.5356
▁adımlar	-11.5356
larınıza	-11.5357
▁Ödül	-11.5357
▁içimde	-11.5358
▁Radyo	-11.536
▁videolar	-11.5361
▁kork	-11.5361
▁biter	-11.5363
▁gülümse	-11.5365
▁gençlik	-11.5366
▁sorulan	-11.5366
▁verilmesi	-11.5366
▁öleceği	-11.5366
▁Aklım	-11.537
▁belirttiği	-11.537
▁toplulukların	-11.5371
▁parçacıkların	-11.5372
▁konferansta	-11.5372
▁kıyafeti	-11.5372
▁gerçekle	-11.5376
▁belirtileri	-11.5377
▁kurumun	-11.5378
▁deneyimle	-11.5378
▁olmamı	-11.5379
▁ulaştım	-11.538
▁bağlanıyor	-11.5381
▁eleştirme	-11.5382
▁ağını	-11.5383
▁Peru	-11.5385
▁insanlığı	-11.5386
▁sahipliği	-11.5388
diyseniz	-11.5388
umuza	-11.5389
▁başlattığı	-11.5389
LA	-11.539
▁gezegenleri	-11.5392
▁iskele	-11.5393
▁Kop	-11.5393
▁aklına	-11.5397
▁Tür	-11.5398
▁gerçekleştirdi	-11.5403
▁kullandılar	-11.5404
▁gizlilik	-11.5406
▁harcadık	-11.5406
▁olsaydık	-11.5407
▁tekerlekl	-11.5407
▁yerlerini	-11.5407
▁aşağıdaki	-11.5408
▁aktiviteler	-11.5409
▁NA	-11.541
▁uçu	-11.5413
▁kimyasallar	-11.542
▁tüketiciler	-11.5421
▁hazırladık	-11.5422
▁ürünlerini	-11.5422
▁Hy	-11.5426
▁matematiği	-11.5427
▁çizimler	-11.5427
▁yukarıdan	-11.5429
▁babaları	-11.543
▁edecekler	-11.5431
▁titre	-11.5432
▁azalması	-11.5436
▁ekranı	-11.5443
▁eğilimli	-11.5446
▁geliştirdiğimiz	-11.5449
▁çıkacağı	-11.545
▁dengesiz	-11.5452
▁yapanlar	-11.5453
▁zihnin	-11.5456
▁Parkı	-11.5456
▁ağırlığında	-11.5458
▁bulundum	-11.546
▁Uçak	-11.5466
▁kullanıyordu	-11.5467
▁hikayemi	-11.5473
▁fikirde	-11.5474
▁96	-11.5475
▁çiftliği	-11.5482
▁öldüğü	-11.5482
▁We	-11.5482
▁ötede	-11.5483
▁gönderdik	-11.5487
▁şirkette	-11.5487
larınızla	-11.5488
▁ettiğimde	-11.5489
▁söyleyemez	-11.5492
▁harcamaları	-11.5496
▁â	-11.5497
▁formda	-11.5501
▁güçlerini	-11.5503
▁diğerini	-11.5504
▁Mont	-11.5512
▁görmemişti	-11.5514
▁teorisini	-11.5515
▁2.5	-11.5517
▁kü	-11.5518
▁edemediği	-11.5518
▁kullanırlar	-11.5518
▁Öğrenme	-11.552
▁getirmiş	-11.5521
▁endüstrisinde	-11.5522
▁ekliyor	-11.5524
▁basma	-11.5525
▁numarası	-11.5527
▁kökleri	-11.5528
amayacağını	-11.5528
▁Bilgisayarlar	-11.553
▁ogren	-11.5534
▁sözler	-11.5535
▁keşifler	-11.5536
▁ova	-11.554
▁bilgisini	-11.5541
▁ormanların	-11.5541
▁sevk	-11.5543
▁olmamıştı	-11.5543
▁kavuş	-11.5545
▁ailede	-11.5546
▁ücreti	-11.5546
▁Tra	-11.5547
▁benzediği	-11.555
▁kaldığımız	-11.5552
▁43	-11.5553
▁düşürdü	-11.5555
▁yarasalar	-11.556
col	-11.5561
suzluk	-11.5561
▁Avusturya	-11.5564
▁Craig	-11.5564
▁Edward	-11.5564
▁Endonezya	-11.5564
▁Müşteri	-11.5564
▁Tıbb	-11.5564
▁dezavantaj	-11.5564
▁dopamin	-11.5564
▁entellektüel	-11.5564
▁kolektif	-11.5564
▁müttefik	-11.5564
▁papaz	-11.5564
▁Yiyecek	-11.5564
▁plaj	-11.5564
▁Alaska	-11.5564
▁dayanışma	-11.5564
▁anonim	-11.5564
▁İzlanda	-11.5564
▁Wolf	-11.5564
▁havaalanı	-11.5564
▁kainat	-11.5564
▁vaat	-11.5564
▁hasıla	-11.5564
▁sihirbaz	-11.5564
▁klon	-11.5564
▁kondom	-11.5564
▁taslak	-11.5564
▁And	-11.5564
▁İnşa	-11.5564
▁itici	-11.5564
▁Nokta	-11.5564
▁üzüntü	-11.5564
▁seyretti	-11.5564
▁Ekranda	-11.5565
▁huylu	-11.5565
▁Cep	-11.5565
▁masaüstü	-11.5565
▁yaşımdayken	-11.5566
▁Genom	-11.5566
▁aklını	-11.5566
▁Sanıyorum	-11.5566
▁programını	-11.5567
viral	-11.5567
▁pekala	-11.5568
▁omurga	-11.5568
▁tablet	-11.5568
▁Emma	-11.5568
▁hamur	-11.5569
▁ülkelerden	-11.5569
▁mitoloji	-11.5569
▁Adem	-11.5569
▁süregel	-11.557
▁kaçırıyor	-11.5571
▁Kutup	-11.5572
▁görünüyorlar	-11.5572
▁parasını	-11.5572
statik	-11.5573
▁geliştiriyor	-11.5574
▁Bhu	-11.5574
▁tartışmalı	-11.5575
▁istila	-11.5575
▁Gor	-11.5576
ivil	-11.5577
▁edebilen	-11.5578
▁çimen	-11.558
▁gelebilecek	-11.5586
▁Söylediğim	-11.5586
▁Tit	-11.5587
▁öldüğünü	-11.5587
▁yürüttü	-11.5588
▁karım	-11.5589
▁tabanlı	-11.5589
▁AG	-11.5589
▁anlatıyorum	-11.5589
▁kuşku	-11.559
▁komp	-11.559
▁yapabildiğimiz	-11.559
▁olmadığınız	-11.559
▁probleme	-11.5593
▁rengini	-11.5595
▁üretimin	-11.5595
lisin	-11.5595
▁istifa	-11.5595
ebiliyorsunuz	-11.5596
▁eğiliminde	-11.5596
▁Sanayi	-11.5596
▁Milli	-11.5601
▁bittiğinde	-11.5601
▁uygulamak	-11.5601
▁hastayı	-11.5601
▁yiyen	-11.5602
▁makinelerin	-11.5602
▁sabahı	-11.5603
▁düşündüğümü	-11.5606
▁liman	-11.5609
▁olduğumdan	-11.5611
▁dolaşı	-11.5617
▁hayranlık	-11.5619
▁kalmayacak	-11.562
▁yapacaklar	-11.5621
▁tasarımcıları	-11.5621
▁uzanıyor	-11.5622
▁riskler	-11.5624
▁şimdilik	-11.5625
▁büyüktür	-11.5628
▁dünyamızda	-11.563
▁başlatmak	-11.563
eceklerini	-11.5631
▁gidişatı	-11.5633
▁konuşuyordu	-11.5636
▁boyutların	-11.5637
▁şefkatli	-11.564
▁attık	-11.5641
▁oturum	-11.5642
ımızdaki	-11.5643
▁Cin	-11.5646
▁hissetmeye	-11.5647
▁eg	-11.5648
▁Gelişim	-11.5651
▁araştırıyor	-11.5651
▁birleşi	-11.5655
▁babalar	-11.5656
▁pazarlık	-11.5657
▁oyuncağı	-11.5657
▁kuruluşu	-11.5658
▁istediğin	-11.5658
▁buralar	-11.5662
▁türünün	-11.5664
▁yuvarlan	-11.5664
▁Post	-11.5665
▁uyuya	-11.5666
▁sürdürme	-11.5668
▁algılaya	-11.567
▁fiziğin	-11.567
ington	-11.567
▁dus	-11.5671
▁dönüşme	-11.5671
▁esneklik	-11.5671
▁Geliş	-11.5673
▁erişti	-11.5673
▁paralarını	-11.5673
▁muydu	-11.5674
▁sensörler	-11.5676
▁edinmek	-11.5678
layabilirim	-11.568
▁yasası	-11.568
▁koşar	-11.5681
▁hepsinden	-11.5681
miyordum	-11.5681
▁31	-11.5683
▁toplamı	-11.5684
▁Şehri	-11.5685
▁İnternette	-11.5688
▁kullanıldığı	-11.5688
ilebilecek	-11.5689
▁bahçesi	-11.569
lduğumuz	-11.5691
▁oynayabilir	-11.5693
▁acıyı	-11.5693
▁malzemelerin	-11.5693
▁derinliklerin	-11.5695
ilmemiş	-11.5696
▁içecek	-11.57
leştiriyoruz	-11.57
▁olmamak	-11.5701
▁keşfettiği	-11.5702
▁almanız	-11.5703
▁çocukluğum	-11.5706
▁MT	-11.5706
▁istasyonları	-11.5707
gg	-11.5708
▁gökyüzünü	-11.5711
▁balıkçılık	-11.5713
▁tarafın	-11.5713
▁Laboratuvar	-11.5714
▁Tip	-11.572
▁tanımak	-11.572
▁ayırdı	-11.5721
Ş	-11.5723
abilirdi	-11.5727
▁Üst	-11.5729
▁ayrıcalık	-11.5733
▁vatandaşı	-11.5735
▁öğrettiği	-11.5736
▁Arı	-11.5736
▁Diğerleri	-11.5739
▁deneyimim	-11.5739
▁Maria	-11.5741
receğiz	-11.5741
▁kurabilir	-11.5742
▁bilgilere	-11.5746
▁çıkmıştı	-11.5746
▁simetrik	-11.5747
▁materyaller	-11.5753
landırılmış	-11.5754
ront	-11.5754
▁bedenin	-11.5755
ring	-11.5755
▁muydun	-11.5756
▁Evde	-11.5756
▁görüntüy	-11.5758
yüm	-11.5764
giniz	-11.5764
▁Gü	-11.5766
▁topluluğ	-11.5767
▁ışığında	-11.5768
▁deneyimini	-11.577
▁uzaklaştı	-11.5773
▁çabaları	-11.5774
▁inanıyordu	-11.5775
▁yolculuğum	-11.5777
▁taşınma	-11.5778
▁bölü	-11.578
▁zamanımızı	-11.5781
▁üretebilir	-11.5783
▁soktu	-11.5783
▁yürümeye	-11.5785
▁görüntülerin	-11.5787
▁oysa	-11.5789
▁gecede	-11.5789
▁hissedebilir	-11.5789
bit	-11.5792
▁Konuşmamı	-11.5795
▁karşılaştık	-11.58
▁mimarlık	-11.5801
▁olmakta	-11.5801
lamayan	-11.5803
▁doktorun	-11.5806
▁donu	-11.5811
▁işaretler	-11.5812
▁bağışı	-11.5814
▁gözlük	-11.5817
AT	-11.5817
▁penis	-11.5818
▁bulutlar	-11.5821
rsem	-11.5822
▁dolaşır	-11.5823
ilmesini	-11.5824
▁takıntılı	-11.5826
▁volkan	-11.5832
▁sevmez	-11.5833
▁çapraz	-11.5834
▁Meclis	-11.5834
▁Mozart	-11.5834
▁Plastik	-11.5834
▁Televizyon	-11.5834
▁elverişli	-11.5834
▁pervane	-11.5834
▁piyango	-11.5834
▁püskürt	-11.5834
▁tezgah	-11.5834
▁tokuş	-11.5834
▁Üzgünüm	-11.5834
▁şırınga	-11.5834
▁Beraber	-11.5834
▁sempati	-11.5834
▁şeridi	-11.5834
▁çıldır	-11.5834
▁Daniel	-11.5834
▁prostat	-11.5834
▁rahip	-11.5834
▁tempo	-11.5834
▁Sıtma	-11.5834
▁kukla	-11.5834
▁mekân	-11.5834
▁reddetti	-11.5834
▁Aşırı	-11.5834
▁Free	-11.5834
▁General	-11.5834
amanla	-11.5835
▁partikül	-11.5835
▁yapabilirdi	-11.5835
▁istenen	-11.5835
▁istediğimizi	-11.5835
▁1,5	-11.5836
▁içgüdüsel	-11.5837
▁Değişik	-11.5837
▁başlayınca	-11.5838
▁Okuma	-11.5838
▁barışçı	-11.5838
▁konuşabilir	-11.5838
▁sembolik	-11.5839
▁astım	-11.5839
▁görüşüm	-11.5839
▁yapmamı	-11.584
▁bilinçsiz	-11.584
▁tasarlar	-11.5841
▁etmeliyim	-11.5841
▁problemlere	-11.5841
▁yılların	-11.5843
▁Oyuncu	-11.5844
▁acik	-11.5845
▁boyama	-11.5845
▁adlandırılır	-11.5847
▁bağladı	-11.5847
▁Kamera	-11.585
▁özlem	-11.585
▁direniş	-11.5851
▁ilişkilerini	-11.5853
▁ışıklar	-11.5854
▁görünecek	-11.5854
▁hü	-11.5854
▁mutluydu	-11.5855
▁tartışmak	-11.5856
▁Sıfır	-11.5857
▁gösteriliyor	-11.5857
izdir	-11.5858
row	-11.5858
▁kutunu	-11.5861
▁ölçüsü	-11.5862
▁kemer	-11.5863
▁tabakası	-11.5864
▁Uyum	-11.5864
▁bahsettik	-11.5866
▁yazdıkları	-11.5867
▁dünyasını	-11.5869
▁AK	-11.5869
▁yararına	-11.587
▁ayın	-11.5871
▁oyunda	-11.5871
▁fili	-11.5872
▁yaklaşır	-11.5874
▁yapıyorlardı	-11.5875
▁Sanatçı	-11.5877
lemeyi	-11.5878
▁verirsek	-11.5879
▁hatırlatmak	-11.5879
▁vücudumuzu	-11.5881
▁çıkarıyorlar	-11.5883
▁gitar	-11.5883
▁Emin	-11.5884
▁büyüdüğünü	-11.5885
▁büyüklük	-11.5888
▁bazlı	-11.5888
▁kızıl	-11.5889
▁yüzleri	-11.589
▁Will	-11.5891
▁boşlukta	-11.5892
▁büyümesini	-11.5893
▁yükü	-11.5897
▁Lak	-11.5898
kac	-11.5898
▁saldırılar	-11.5901
lyn	-11.5902
▁tarafındaki	-11.5903
▁alamıyor	-11.5906
▁serisi	-11.5911
▁sırtında	-11.5913
▁arkadaşlarımla	-11.5913
▁önerdi	-11.5914
▁organizmaların	-11.5916
▁görebildiği	-11.5916
▁oralarda	-11.592
▁başkanlı	-11.592
▁polisi	-11.5922
▁yatırımı	-11.5924
▁Tarım	-11.5925
▁hayalet	-11.5932
▁Ölü	-11.5932
▁vücudumuz	-11.5933
▁olasılıkları	-11.5933
▁oylama	-11.5934
▁taktı	-11.5934
seler	-11.5938
▁denizci	-11.5938
▁öl	-11.5938
▁katlama	-11.5941
▁tarihçi	-11.5944
▁korkar	-11.5945
dukları	-11.5946
▁Gerek	-11.5946
▁form	-11.595
▁yanıtı	-11.595
ette	-11.5951
▁şunları	-11.5951
▁kaldırıyor	-11.5953
sol	-11.5957
▁sıçra	-11.5958
hal	-11.596
▁yönetmek	-11.5965
▁sonda	-11.5965
▁uydurma	-11.597
▁Mag	-11.5971
▁beyninizi	-11.5972
▁kaçınız	-11.5974
▁çıkarken	-11.5975
▁andı	-11.5977
▁vurgulama	-11.5977
▁göstermeme	-11.5978
▁kokusu	-11.5979
▁değersiz	-11.598
▁Kızlar	-11.5981
▁cesaretlendir	-11.5982
▁parkın	-11.5982
▁koruyacak	-11.5989
▁kafasında	-11.5992
▁yakıtlar	-11.5992
▁reklamı	-11.5992
▁dahilinde	-11.5993
▁şaşırttı	-11.5993
▁Mes	-11.5995
▁sark	-11.5997
▁Cor	-11.5998
▁mühendisleri	-11.5999
▁fiziği	-11.6
▁çözecek	-11.6
▁kalbiniz	-11.6003
▁olamayacağı	-11.6005
▁salonu	-11.6007
▁alabileceği	-11.6008
▁Aşı	-11.6008
▁birleştirmek	-11.6009
▁bölgelere	-11.6009
▁işiniz	-11.6014
eceğinizi	-11.6015
▁sorunla	-11.6016
▁ulaşabilme	-11.6018
▁göründü	-11.6019
maktı	-11.6023
▁yoğunluğunu	-11.6024
▁oluşma	-11.6026
▁istendi	-11.6028
▁hazırladı	-11.603
▁atılmış	-11.6031
ustu	-11.6033
▁koşma	-11.6033
RA	-11.6033
▁engelleme	-11.6035
▁neslin	-11.6036
törler	-11.6037
▁olurum	-11.6038
▁Beat	-11.6039
▁adamış	-11.6041
▁gidebileceği	-11.6041
▁bilmediğim	-11.6041
▁sözcükler	-11.6044
▁tarafsız	-11.6045
▁etmekle	-11.6045
▁kahramanları	-11.6048
▁Yü	-11.6048
▁yapmamızı	-11.6048
▁biçimlendir	-11.6053
▁gözlerimi	-11.6054
▁yayınlanma	-11.6061
▁fonksiyonları	-11.6061
▁Düş	-11.6065
▁dönmüş	-11.6066
▁faktörü	-11.6069
▁aşaması	-11.6069
▁öğrenim	-11.6071
▁evlendi	-11.6071
▁karada	-11.6072
▁dolaşma	-11.6073
▁düşünüyorlardı	-11.6073
lendirilmiş	-11.6074
▁başların	-11.6074
▁kısma	-11.6075
▁civarı	-11.6076
rap	-11.6076
likli	-11.6078
▁sürüş	-11.6079
▁imkanları	-11.6086
▁Bebek	-11.6088
▁gösteriş	-11.6089
▁kesilmiş	-11.6095
▁işlemler	-11.6095
▁tonu	-11.6099
▁açılı	-11.61
▁uzmanların	-11.61
▁uyandıra	-11.6101
▁siteleri	-11.6106
abildiğimiz	-11.6106
▁Pete	-11.6106
▁keşfedildi	-11.6111
▁nötr	-11.6112
▁Black	-11.6112
▁Cumhuriyetçi	-11.6112
▁Philadelphia	-11.6112
▁basketbol	-11.6112
▁bayılır	-11.6112
▁ciğer	-11.6112
▁dikdörtgen	-11.6112
▁istiridye	-11.6112
▁mevzu	-11.6112
▁müzakere	-11.6112
▁palmiye	-11.6112
▁asfalt	-11.6112
▁kopru	-11.6112
▁Bakteriler	-11.6112
▁Christoph	-11.6112
▁döviz	-11.6112
▁Bağımsız	-11.6112
▁metropol	-11.6112
▁Tayland	-11.6112
▁şirin	-11.6112
▁kapsül	-11.6112
▁Mandela	-11.6112
▁komuta	-11.6112
▁Mesaj	-11.6112
▁aksanı	-11.6112
▁sicim	-11.6112
▁meşru	-11.6112
▁jet	-11.6113
▁maksim	-11.6113
▁döndürme	-11.6113
▁Duygu	-11.6113
▁Philip	-11.6113
▁bahsedelim	-11.6114
▁kabı	-11.6114
▁düzenleyen	-11.6114
▁kafamı	-11.6115
▁tasarımcısı	-11.6115
▁sunulan	-11.6116
▁yörüngesinde	-11.6116
▁görmediği	-11.6116
▁ayrılıyor	-11.6117
▁göstermektedir	-11.6118
▁inanmıyorum	-11.6118
▁Satur	-11.6119
▁birebir	-11.6119
▁gördüğümüzde	-11.612
▁düşüncelerini	-11.612
▁vermeliyiz	-11.612
▁müşterileri	-11.612
utube	-11.6121
▁192	-11.6121
lanmıyor	-11.6122
ranın	-11.6122
lemez	-11.6122
▁kullanırız	-11.6122
▁farz	-11.6123
▁Kamu	-11.6123
▁geçirmeye	-11.6123
▁dereceye	-11.6124
▁kuraklık	-11.6125
▁olmaktadır	-11.6127
▁yaratıkları	-11.6127
▁dokuyu	-11.6128
▁düzenledi	-11.6128
▁toplayan	-11.6129
▁isteğim	-11.6129
▁baca	-11.613
▁kafam	-11.6131
▁paylaşıla	-11.6133
▁yapmıyorum	-11.6133
▁duyuyordu	-11.6134
▁gelirdi	-11.6134
lenmişti	-11.6134
▁kutular	-11.6135
▁pasta	-11.6135
▁görüşleri	-11.6136
▁bilincin	-11.6136
▁vefat	-11.6137
▁güvenme	-11.6138
▁tuzlu	-11.6138
▁Sevgili	-11.6139
▁ekonomimiz	-11.6141
▁asır	-11.6142
▁Monter	-11.6143
▁üretebil	-11.6143
▁hesaplamalar	-11.6143
▁ayrılır	-11.6144
▁kaptır	-11.6146
▁değişecek	-11.6147
▁edeceğimiz	-11.6147
▁işlenmiş	-11.6147
▁tohumları	-11.6148
▁karo	-11.6149
eceğimi	-11.6151
▁sarmal	-11.6151
▁gözümü	-11.6152
hoo	-11.6153
▁yabancılar	-11.6157
▁düşündüğümde	-11.6159
▁hastaneler	-11.6161
▁öncelikli	-11.6163
wat	-11.6163
▁kırılma	-11.6163
▁galib	-11.6164
yapabileceğimizi	-11.6164
▁yüzyıllar	-11.6166
▁hayatlarımızı	-11.6167
▁başlamada	-11.6169
▁etmişler	-11.617
▁batır	-11.6171
▁Gold	-11.6172
▁kurs	-11.6172
▁Milo	-11.6172
▁kaynağını	-11.6173
▁takıl	-11.6175
▁Bal	-11.6175
ilmişti	-11.6175
▁düştüğünü	-11.6178
üydü	-11.6178
▁bakmanız	-11.6181
▁çağırdı	-11.6182
▁geçerlidir	-11.6184
▁tesisler	-11.6184
▁şifreleme	-11.6185
▁yemeye	-11.6187
larımda	-11.6187
▁kullanabilme	-11.619
▁söylüyoruz	-11.6192
▁işlediği	-11.6192
▁Bilin	-11.6193
▁büyüklüğünü	-11.6195
▁eğitimde	-11.6195
çılık	-11.6195
▁söylerler	-11.6197
▁yapardım	-11.6197
illa	-11.62
mazsanız	-11.6203
▁suyunu	-11.6205
▁izleyebilir	-11.6206
▁genişliği	-11.6206
▁duymuyor	-11.6207
▁ömrünü	-11.6207
abiliyorum	-11.6208
▁attım	-11.6208
▁liderlerin	-11.6209
▁kaçtı	-11.6212
▁tarafları	-11.6212
▁kanunlar	-11.6212
▁Gözleri	-11.6219
▁Bang	-11.6221
▁kalanında	-11.6225
▁canlıları	-11.6225
▁sayıyı	-11.6226
▁Vo	-11.6226
▁yönlendiril	-11.6228
▁iner	-11.6228
▁zamanlarında	-11.6229
▁gezegenimizde	-11.623
▁raporu	-11.623
▁yediğimiz	-11.623
▁Kimin	-11.6231
▁çalışıyorduk	-11.6231
▁Gidi	-11.6231
▁ünü	-11.6232
▁duymadığı	-11.6233
▁dönüştürdü	-11.6233
▁haberleşme	-11.6234
▁verilir	-11.6242
▁sözlü	-11.6245
emeyeceğimiz	-11.6246
▁gelişimini	-11.6246
▁biliriz	-11.6247
ülü	-11.625
▁yokluğu	-11.625
▁olabilmesi	-11.625
▁mail	-11.6251
▁karşılamak	-11.6251
▁ülkelerinde	-11.6253
▁görselleştirme	-11.6254
▁günümüzü	-11.6254
ğınız	-11.6257
▁istediğinde	-11.626
▁terimi	-11.6261
▁kazanacak	-11.6265
▁prensipleri	-11.6269
▁geliştiril	-11.6269
▁götürebilir	-11.6269
dığınızı	-11.6272
▁Kam	-11.6273
▁toplumumuzu	-11.6273
▁kulakları	-11.6273
▁hazırlıyor	-11.6273
ity	-11.6275
▁ürettiğimiz	-11.6276
▁Resim	-11.6276
▁kısımda	-11.6276
▁önündeki	-11.6285
▁Düz	-11.6289
▁derecesi	-11.6289
▁Geleceğin	-11.629
▁kesik	-11.6291
ciliği	-11.6295
▁girişi	-11.6296
▁tepesin	-11.6296
▁kaydır	-11.6296
▁hâlde	-11.6299
▁çalışın	-11.63
▁konsepti	-11.6302
biliriz	-11.6307
acaklarını	-11.6309
▁düşmanı	-11.631
▁kapasitesini	-11.6312
▁uçurma	-11.6312
▁akıyor	-11.6312
▁tarafını	-11.6317
▁tele	-11.6318
▁çevirir	-11.6322
mediğimiz	-11.6324
▁tasarımları	-11.6324
▁ulaşmış	-11.6325
onik	-11.6325
▁çöker	-11.6328
▁meseleler	-11.6329
▁52	-11.6329
▁kurtaracak	-11.6332
▁koyacak	-11.6338
▁bırakacak	-11.6339
▁büyüğü	-11.634
▁kurtarmaya	-11.6341
▁öğrencilerimiz	-11.6343
▁Dene	-11.6343
▁kaldırır	-11.6344
▁hisleri	-11.6346
▁destekler	-11.6348
▁ayrılık	-11.6349
▁eko	-11.6352
▁süreçler	-11.6352
uzun	-11.6353
▁kaybetmek	-11.6353
▁37	-11.6353
▁parlaya	-11.6353
▁isi	-11.6356
▁toplumları	-11.636
▁gitmesini	-11.6361
▁tum	-11.6361
▁yatırımcılar	-11.6365
▁hikâyesi	-11.6366
▁oturduğu	-11.6369
▁yasaları	-11.637
▁eskisi	-11.6371
▁bilecek	-11.6374
▁yaşamakta	-11.6379
lanarak	-11.638
▁kale	-11.638
▁bastı	-11.6385
▁bedel	-11.6389
▁5000	-11.639
▁amaçla	-11.6394
▁bahsetmişti	-11.6394
▁kullanabil	-11.6395
▁hamuru	-11.6396
▁çocukla	-11.6397
▁metaboli	-11.6397
▁yüce	-11.6397
▁Belediye	-11.6397
▁Benjamin	-11.6397
▁Cevabı	-11.6397
▁Elizabeth	-11.6397
▁Kosova	-11.6397
▁Mevcu	-11.6397
▁Sürdürülebilir	-11.6397
▁durağan	-11.6397
▁fantastik	-11.6397
▁kronik	-11.6397
▁kıvılcım	-11.6397
▁manevra	-11.6397
▁prosedür	-11.6397
▁tolerans	-11.6397
▁vajina	-11.6397
▁zırh	-11.6397
▁İhtiyacı	-11.6397
▁nitelendir	-11.6397
▁Nathan	-11.6397
▁tırnak	-11.6397
[...]
