<unk>	0
<s>	0
</s>	0
<pad>	0
▁	-3.45957
▁.	-3.51941
t	-3.57339
▁,	-3.72593
k	-3.96468
n	-4.20915
▁bir	-4.29297
m	-4.33616
a	-4.37143
;	-4.37493
e	-4.40058
▁&	-4.41339
▁ve	-4.63282
l	-4.75812
r	-4.77432
s	-4.8075
i	-4.81551
▁bu	-4.96125
y	-4.9725
quo	-4.99467
ı	-5.04618
z	-5.08453
lar	-5.09697
la	-5.09764
ş	-5.125
ü	-5.15717
de	-5.17469
le	-5.17585
apos	-5.23383
ler	-5.26844
o	-5.32863
li	-5.34959
da	-5.35054
ma	-5.3517
▁de	-5.41746
▁da	-5.44432
in	-5.45271
p	-5.46551
u	-5.47844
en	-5.49565
me	-5.51263
ya	-5.57506
h	-5.58829
▁Bu	-5.61768
si	-5.63619
er	-5.63684
▁için	-5.64262
ra	-5.66393
ar	-5.67876
an	-5.70319
ç	-5.71633
im	-5.71855
▁a	-5.71877
ları	-5.73732
▁o	-5.74179
di	-5.76256
f	-5.7692
d	-5.7769
leri	-5.77997
lı	-5.78854
ın	-5.81171
na	-5.85736
▁ya	-5.88577
ce	-5.88583
v	-5.8924
re	-5.89394
den	-5.91239
▁Ve	-5.92276
▁çok	-5.94113
ri	-5.94258
▁e	-5.96491
ne	-5.96873
g	-5.9833
sı	-5.9985
▁ta	-6.00707
▁ha	-6.01023
▁?	-6.01437
ki	-6.02337
ğ	-6.05954
ye	-6.06406
▁ki	-6.07469
▁daha	-6.07801
sa	-6.08299
▁ne	-6.08783
▁ka	-6.09429
▁şey	-6.12238
▁A	-6.12851
ti	-6.1507
ca	-6.18203
▁g	-6.18294
▁var	-6.19618
▁al	-6.20738
se	-6.20955
▁yap	-6.24642
ir	-6.27906
ci	-6.28433
iyor	-6.29923
lan	-6.30275
ır	-6.30488
mek	-6.30562
mak	-6.30588
▁)	-6.33626
(	-6.3371
dan	-6.36505
▁gibi	-6.38013
yı	-6.38041
dı	-6.38235
▁:	-6.38381
yi	-6.39085
▁olma	-6.40845
il	-6.42607
▁olarak	-6.44183
lık	-6.44571
tı	-6.44583
lu	-6.45826
0	-6.47223
ım	-6.49525
ba	-6.50108
du	-6.5021
ün	-6.5096
▁olan	-6.5111
lik	-6.51484
ür	-6.52372
uz	-6.52518
lerin	-6.53587
▁değil	-6.53651
ö	-6.54254
c	-6.55367
▁sa	-6.55396
iz	-6.55549
▁...	-6.55854
or	-6.5601
▁—	-6.56595
ıl	-6.59059
ni	-6.59119
un	-6.59647
▁en	-6.60227
▁S	-6.60543
bi	-6.6205
b	-6.62212
dir	-6.62576
▁gör	-6.63015
va	-6.63623
mi	-6.63687
▁an	-6.63783
▁ba	-6.65522
▁O	-6.66308
▁kadar	-6.66544
▁zaman	-6.67142
▁p	-6.67439
▁yıl	-6.67544
▁B	-6.67591
▁i	-6.67845
▁iş	-6.67873
▁her	-6.68067
▁ko	-6.68074
al	-6.69836
▁Bir	-6.69954
▁te	-6.70008
dü	-6.71488
nin	-6.71748
dır	-6.72553
▁İ	-6.73449
nın	-6.73974
ların	-6.73993
▁kendi	-6.745
▁me	-6.75365
▁yer	-6.76168
ey	-6.76541
on	-6.77159
ıyor	-6.77419
ro	-6.77557
gi	-6.78611
ik	-6.7864
▁ile	-6.78666
ecek	-6.79052
▁s	-6.79986
yle	-6.79991
▁kullan	-6.81074
be	-6.81293
▁bak	-6.81312
▁D	-6.81361
▁düşün	-6.81879
ında	-6.82493
▁ben	-6.82525
um	-6.83068
ur	-6.83462
▁ö	-6.84039
▁ara	-6.84519
ha	-6.84663
sel	-6.84759
▁iyi	-6.84789
▁E	-6.85022
cı	-6.85498
▁ma	-6.85769
▁ama	-6.85788
▁do	-6.8647
el	-6.86738
▁sonra	-6.87118
▁iste	-6.87287
▁gel	-6.88762
▁be	-6.88821
nı	-6.89238
▁G	-6.89476
▁ç	-6.90589
▁di	-6.90761
▁olduğunu	-6.91222
lama	-6.91814
-	-6.92009
larını	-6.93219
zi	-6.93839
lerini	-6.94143
▁ye	-6.94176
lü	-6.94325
tır	-6.95248
▁büyük	-6.9549
▁gerek	-6.95754
▁M	-6.95867
▁dünya	-6.97144
▁baş	-6.98688
▁biz	-6.98866
▁çalış	-6.98993
▁kal	-6.99121
ış	-6.99417
ge	-7.00424
▁mi	-7.01156
▁k	-7.0168
yan	-7.01798
ör	-7.02109
miş	-7.02306
za	-7.02441
▁Ama	-7.02736
▁olduğu	-7.02912
daki	-7.02927
▁insan	-7.03175
ze	-7.03428
.	-7.03962
▁K	-7.04569
maya	-7.05299
nda	-7.05817
tu	-7.05842
▁bunu	-7.05899
▁Ba	-7.06538
niz	-7.06811
▁P	-7.07029
▁nasıl	-7.07426
üz	-7.07591
hi	-7.07598
▁yeni	-7.0761
▁şu	-7.07692
acak	-7.08106
sını	-7.08465
▁iki	-7.08624
inde	-7.09284
▁ver	-7.09348
tan	-7.09613
▁ke	-7.10512
ini	-7.11494
▁gün	-7.11757
▁kur	-7.11965
sini	-7.12502
▁önce	-7.1253
▁yüz	-7.12722
nız	-7.13435
▁sadece	-7.14067
▁insanlar	-7.1452
miz	-7.14997
ru	-7.15089
▁sağ	-7.1536
▁C	-7.16036
ine	-7.17438
▁söyle	-7.18333
▁Ha	-7.18555
ması	-7.19219
ebilir	-7.19604
▁fazla	-7.19606
▁yol	-7.1962
şi	-7.19725
dik	-7.20127
j	-7.20326
▁yok	-7.20664
▁Ben	-7.20712
▁etme	-7.21332
▁çünkü	-7.2148
▁T	-7.21526
dığı	-7.21545
man	-7.21614
ip	-7.22338
acağı	-7.22371
▁göster	-7.22772
ına	-7.23889
tik	-7.24052
yla	-7.24724
meye	-7.24989
ran	-7.25354
lo	-7.25368
▁şekilde	-7.25609
▁ev	-7.25636
iş	-7.25808
▁Y	-7.25842
sunuz	-7.26235
▁geç	-7.26437
dur	-7.26731
imiz	-7.27386
▁yaşa	-7.27469
ndan	-7.27576
▁bil	-7.28226
mız	-7.29698
deki	-7.29762
ğı	-7.30567
3	-7.30756
lara	-7.32033
ten	-7.32824
▁1	-7.33027
▁ku	-7.33402
uyor	-7.34326
dim	-7.3433
mış	-7.34949
ği	-7.35229
unu	-7.35439
5	-7.36784
nu	-7.3681
kı	-7.3707
▁Ne	-7.38007
▁aynı	-7.3832
lere	-7.3926
ül	-7.3953
arak	-7.39542
diği	-7.39684
▁ak	-7.3986
ve	-7.40551
es	-7.4087
ken	-7.41026
▁benim	-7.41241
▁gerçekten	-7.4183
ça	-7.42477
▁in	-7.42962
to	-7.43046
▁gerçek	-7.43179
ını	-7.43256
▁son	-7.43328
▁hayat	-7.4336
üm	-7.43601
▁duy	-7.43761
▁Sa	-7.43919
▁biri	-7.44108
üyor	-7.44354
▁el	-7.44418
abilir	-7.44579
▁kar	-7.44638
▁çık	-7.44654
sinde	-7.44688
L	-7.44867
N	-7.45098
▁hakkında	-7.45849
ıcı	-7.45902
▁diğer	-7.45955
▁Şimdi	-7.46084
▁tüm	-7.46185
▁F	-7.46212
ıp	-7.46227
▁Yani	-7.46415
▁b	-7.46476
▁f	-7.46738
▁u	-7.46879
ren	-7.47178
yu	-7.47286
▁H	-7.4734
ul	-7.47406
fa	-7.47491
vi	-7.47658
siniz	-7.47694
ydı	-7.47803
▁veri	-7.48355
sal	-7.48435
▁kişi	-7.49173
sında	-7.49389
ga	-7.49966
▁farklı	-7.50238
▁şeyler	-7.50627
▁sahip	-7.50668
ley	-7.50748
▁öğren	-7.50885
▁Bunu	-7.51695
▁R	-7.51891
▁bul	-7.52177
▁su	-7.52542
▁pa	-7.52628
▁başka	-7.52812
▁süre	-7.53283
▁ilk	-7.53325
▁yapı	-7.53475
▁Ya	-7.53606
min	-7.54325
çe	-7.54346
▁siz	-7.54404
raf	-7.54475
▁anlam	-7.54484
▁gid	-7.54995
w	-7.55327
▁yaş	-7.55416
▁burada	-7.55658
▁Ka	-7.56106
▁mu	-7.56584
▁etki	-7.56761
▁neden	-7.56874
ışı	-7.57258
nun	-7.57265
▁tek	-7.57417
▁yaz	-7.57452
▁bo	-7.57539
▁bunun	-7.57671
▁doğru	-7.57903
iği	-7.59071
▁durum	-7.59112
ydi	-7.5917
▁içinde	-7.5921
▁mü	-7.59365
dık	-7.59457
▁az	-7.60258
▁önemli	-7.60486
▁ilgili	-7.60516
▁yarat	-7.60845
▁top	-7.61706
su	-7.61746
▁ay	-7.61826
▁şa	-7.61843
▁onlar	-7.61911
▁oldu	-7.62076
▁bile	-7.62469
dım	-7.62892
leşti	-7.63262
▁sev	-7.63474
▁so	-7.63758
4	-7.63975
▁göre	-7.64031
▁değiş	-7.64053
▁böyle	-7.64631
lerde	-7.64883
ğa	-7.64921
sin	-7.65068
▁dön	-7.65101
sız	-7.65165
sun	-7.65595
▁soru	-7.65839
larda	-7.65861
diğim	-7.66078
▁bağ	-7.66125
sine	-7.66277
▁aslında	-7.66403
gu	-7.66797
I	-7.67107
cu	-7.67114
▁orta	-7.67134
ebil	-7.67253
inin	-7.67355
▁20	-7.67364
▁Ş	-7.67524
▁karşı	-7.67621
▁ön	-7.68238
▁küçük	-7.68238
lığı	-7.68334
▁kay	-7.68469
tir	-7.69057
▁Gülüşmeler	-7.69153
duğu	-7.69412
▁olur	-7.69676
leme	-7.69741
düğü	-7.69922
▁konu	-7.7
▁si	-7.70247
▁göz	-7.70582
▁alan	-7.70602
cü	-7.71121
luk	-7.71401
tık	-7.71652
yon	-7.71702
diğini	-7.71852
▁eder	-7.71908
▁hasta	-7.72347
▁vardı	-7.72424
▁çek	-7.72426
liği	-7.72445
larında	-7.72461
▁hep	-7.72557
ünü	-7.73621
▁getir	-7.7393
siz	-7.73939
▁veya	-7.7424
▁etti	-7.74625
▁yapma	-7.75086
▁fark	-7.75194
ici	-7.75313
▁sen	-7.7594
▁De	-7.76475
▁sistem	-7.76542
▁oku	-7.76622
▁tür	-7.76627
▁başladı	-7.76763
▁ediyor	-7.77047
▁parça	-7.77248
▁kap	-7.77354
▁görü	-7.77723
▁geri	-7.77819
rken	-7.77957
▁ise	-7.7815
ıyoruz	-7.78167
▁bazı	-7.78384
▁zor	-7.78528
▁üzerinde	-7.78607
ımı	-7.78768
mesi	-7.78842
▁şe	-7.78843
muş	-7.78855
ğu	-7.79033
▁uy	-7.79094
▁eğer	-7.79157
▁bizim	-7.79174
po	-7.79492
dığını	-7.7975
▁Ö	-7.80016
▁çıkar	-7.80877
▁ülke	-7.81351
▁bana	-7.81459
lıyor	-7.81666
▁Eğ	-7.81691
mayı	-7.81891
▁Faka	-7.82279
▁J	-7.82335
ıyorum	-7.82565
▁Ma	-7.83237
▁san	-7.83244
▁Ta	-7.8362
yo	-7.8384
▁üç	-7.84026
dum	-7.84177
bir	-7.84606
inden	-7.84638
1	-7.8467
A	-7.84796
▁10	-7.84813
ste	-7.85226
lardan	-7.8523
larının	-7.86047
▁Ç	-7.86069
8	-7.8613
bo	-7.86135
▁onları	-7.86188
▁olacak	-7.86214
6	-7.86636
▁bilgi	-7.86704
▁der	-7.86836
iyorum	-7.8712
umu	-7.87254
▁bulun	-7.87514
▁yaptı	-7.87741
▁size	-7.87751
larımız	-7.87898
▁edil	-7.88036
kta	-7.88174
▁açık	-7.8838
lerden	-7.88487
▁biraz	-7.88489
▁gö	-7.88591
▁teknoloji	-7.8869
▁tut	-7.88758
▁fa	-7.88824
▁tanı	-7.88848
çi	-7.88932
▁kadın	-7.89062
▁çalışma	-7.8914
▁fi	-7.89284
▁2	-7.89443
sanız	-7.89863
▁gir	-7.9013
▁iz	-7.90167
▁bütün	-7.90459
ığı	-7.90608
▁Biz	-7.90658
▁So	-7.90923
▁diye	-7.91044
diğimiz	-7.91259
▁ek	-7.91311
sınız	-7.92086
lerine	-7.92397
▁olması	-7.92538
▁insanların	-7.92551
ıyorlar	-7.9262
mizi	-7.92718
V	-7.92833
eceği	-7.93476
▁Her	-7.93497
▁hiç	-7.93823
▁ağ	-7.94228
▁hareket	-7.94434
▁Ge	-7.94807
asyon	-7.95027
▁değiştir	-7.95618
▁şimdi	-7.95925
ucu	-7.96598
▁dedi	-7.96822
▁bunlar	-7.97357
sek	-7.9781
▁dış	-7.97898
larına	-7.98157
mez	-7.98344
▁ses	-7.98452
7	-7.98926
lerle	-7.99172
▁hem	-7.99511
▁mı	-7.99815
▁sor	-7.99903
iyoruz	-8.00084
▁seç	-8.00594
▁U	-8.00595
▁başar	-8.00795
▁olabilir	-8.00938
▁düş	-8.01109
▁yüzden	-8.01328
▁nokta	-8.01568
▁para	-8.01768
erek	-8.01832
ının	-8.01967
▁arasında	-8.01986
▁çoğu	-8.02023
▁onu	-8.02512
▁üret	-8.02589
iniz	-8.02601
▁anlat	-8.02765
▁inan	-8.02794
▁düz	-8.03571
▁mo	-8.03876
lerinin	-8.03971
▁yardım	-8.04145
▁biliyor	-8.04154
9	-8.04587
▁zamanda	-8.04791
ist	-8.04791
▁açı	-8.05031
▁sorun	-8.0528
▁Çünk	-8.05315
mızı	-8.05731
▁hız	-8.06116
lerimiz	-8.06533
▁yaptığı	-8.06923
▁Kahkaha	-8.06925
▁konuş	-8.07735
▁tarafından	-8.07839
▁çöz	-8.08133
▁Amerika	-8.08517
▁görün	-8.08548
▁adam	-8.089
iyet	-8.09277
▁Bil	-8.09322
▁hikaye	-8.09642
▁bilim	-8.09742
mişti	-8.10015
iyordu	-8.10146
▁çocuk	-8.10473
pi	-8.10607
▁oluştur	-8.10884
▁büyü	-8.11318
bilme	-8.11379
▁is	-8.11671
▁yapmak	-8.11736
▁oluyor	-8.11761
▁adı	-8.11792
lendir	-8.12255
yoruz	-8.12459
▁güzel	-8.13299
▁Burada	-8.13305
W	-8.13451
eceğim	-8.13647
▁İşte	-8.13708
2	-8.13717
▁istiyorum	-8.14062
▁Te	-8.14176
yorum	-8.14262
ımız	-8.14483
liğin	-8.1471
▁milyon	-8.15049
▁koy	-8.15164
▁Dünya	-8.1531
▁iç	-8.16407
luğu	-8.16426
▁Çok	-8.16471
▁Siz	-8.16747
▁ter	-8.17052
▁19	-8.17062
▁bit	-8.17126
▁fikir	-8.17313
▁;	-8.17348
▁konuşma	-8.17351
â	-8.17356
▁değer	-8.17959
▁geldi	-8.17995
▁onun	-8.18683
sta	-8.18817
▁kaç	-8.18947
dığımız	-8.19121
▁üst	-8.19126
ıyordu	-8.20194
▁sayı	-8.20325
oloji	-8.20377
▁gelen	-8.20606
▁ortaya	-8.21276
▁ayrı	-8.21289
ebilirsiniz	-8.21431
S	-8.21545
▁uzun	-8.21561
mıştı	-8.21669
▁oldukça	-8.22314
▁birkaç	-8.2254
bu	-8.22604
▁fakat	-8.22929
▁karar	-8.23084
▁ulaş	-8.2322
▁Ko	-8.23392
▁Peki	-8.23672
▁kıs	-8.2373
▁kötü	-8.24456
▁zorunda	-8.24973
▁kız	-8.25077
▁güven	-8.252
▁devam	-8.25463
ladı	-8.25579
▁doğa	-8.25715
▁He	-8.265
▁art	-8.26522
▁tekrar	-8.26602
abileceği	-8.26698
▁Bunlar	-8.26705
lığın	-8.27252
▁herkes	-8.27484
alım	-8.2769
▁sıra	-8.27719
▁yani	-8.27919
▁gitti	-8.28184
▁geliş	-8.28535
▁Aslında	-8.28828
▁Alkış	-8.29292
▁ser	-8.30584
▁bırak	-8.30814
▁uç	-8.30883
▁düşünüyor	-8.31399
▁orada	-8.31406
landır	-8.31542
▁hücre	-8.31545
▁boyunca	-8.31668
▁arkadaş	-8.31669
▁yön	-8.31727
▁toplum	-8.31816
▁hayal	-8.31955
abiliriz	-8.31964
ite	-8.32013
▁oyun	-8.32257
D	-8.3237
▁geliyor	-8.32393
▁Alkışlar	-8.32605
seniz	-8.32624
B	-8.3279
▁belir	-8.33054
▁Me	-8.3358
manın	-8.33752
▁istiyor	-8.34002
▁dönüş	-8.34977
▁yakın	-8.35381
▁bilgisayar	-8.35606
▁aile	-8.35849
▁Teşekkür	-8.36631
▁pek	-8.36758
▁çocuklar	-8.37094
▁oluş	-8.37674
▁birçok	-8.37799
▁ihtiyacı	-8.38254
▁bugün	-8.38272
tığımız	-8.38355
▁Onlar	-8.38543
▁bölge	-8.38845
▁Daha	-8.39182
▁ölç	-8.39311
▁yüksek	-8.3944
▁basit	-8.39833
▁edebil	-8.39996
▁Anca	-8.40603
ılmış	-8.40738
mekte	-8.40984
▁Afrika	-8.41312
▁geçir	-8.41558
▁sık	-8.41694
ümüz	-8.41754
▁yarı	-8.41857
▁hiçbir	-8.41859
▁belki	-8.41933
▁Evet	-8.42886
▁kazan	-8.43131
▁enerji	-8.44536
▁verme	-8.44801
▁öyle	-8.45347
▁içeri	-8.4642
▁ekonomi	-8.46436
▁problem	-8.46507
▁birlikte	-8.46583
▁tamamen	-8.46737
▁savaş	-8.46798
▁şirket	-8.47006
▁araştırma	-8.47508
▁taşı	-8.47699
▁proje	-8.48663
▁bunları	-8.48681
▁çeşit	-8.48809
▁harika	-8.49833
▁temel	-8.50776
▁yerine	-8.50829
▁öğret	-8.5109
eceğini	-8.51601
▁sonuç	-8.51991
▁örnek	-8.5244
▁özel	-8.52646
▁şöyle	-8.52666
abilirsiniz	-8.53378
müş	-8.53407
▁Ku	-8.53475
▁Sonra	-8.54049
▁saat	-8.54535
▁fotoğraf	-8.54574
▁birşey	-8.5479
▁olsa	-8.54848
▁çevre	-8.55115
▁işte	-8.55159
▁artık	-8.55319
▁üzerine	-8.55347
▁söz	-8.55588
▁ettiği	-8.56907
▁eğitim	-8.56992
▁korku	-8.58055
▁tasarım	-8.58424
▁hayvan	-8.58826
▁erkek	-8.58986
▁benzer	-8.59449
▁uygula	-8.60012
▁paylaş	-8.60284
▁bekle	-8.60493
▁derece	-8.60638
Z	-8.60774
▁geliştir	-8.60934
tığını	-8.61195
▁uzak	-8.61585
▁genel	-8.61609
▁fikri	-8.62125
▁kontrol	-8.62261
▁konusunda	-8.62264
Ü	-8.63433
▁organ	-8.63443
▁özellikle	-8.63974
▁gitme	-8.64118
▁şehir	-8.64708
▁altında	-8.65097
▁olay	-8.65338
▁kolay	-8.65945
▁ilişki	-8.66078
▁model	-8.66137
▁milyar	-8.66772
▁yürü	-8.67372
ebileceği	-8.67563
▁olabil	-8.67608
▁ancak	-8.68121
▁kaynak	-8.68195
▁İnsanlar	-8.68352
▁ilginç	-8.68706
▁otur	-8.68722
▁sosyal	-8.68973
▁sonunda	-8.69787
▁Tamam	-8.70426
▁yaklaşık	-8.70597
x	-8.71771
▁dört	-8.71772
▁kelime	-8.72002
▁beyin	-8.72266
layabil	-8.72393
▁Kendi	-8.72517
▁hafta	-8.72693
▁olacağı	-8.72795
▁grup	-8.7325
▁tamam	-8.73877
▁yönet	-8.74471
▁program	-8.74649
abiliyor	-8.74711
▁eski	-8.74746
▁tarih	-8.75324
%	-8.75977
▁hazır	-8.75996
▁inşa	-8.76017
▁herhangi	-8.76264
▁film	-8.76337
▁teşekkür	-8.7684
▁50	-8.77439
▁karşılaş	-8.77818
M	-8.78109
leşme	-8.78447
▁beyni	-8.78537
▁ürün	-8.78575
▁inanılmaz	-8.7908
P	-8.85095
T	-8.85353
R	-8.94874
C	-8.96431
E	-9.04739
O	-9.28489
G	-9.31176
H	-9.4565
K	-9.52175
,	-9.72557
F	-9.83772
“	-10.1629
Y	-10.2332
İ	-10.2509
X	-10.2868
q	-10.5072
Q	-10.7338
U	-10.7375
J	-10.9777
û	-11.3637
Ş	-11.5631
î	-11.5949
`	-11.8532
é	-11.8532
#	-11.9882
=	-12.1444
‘	-12.1444
+	-12.2639
Ö	-12.444
Ç	-12.5256
*	-12.796
^	-12.9104
@	-12.9729
í	-13.0396
ó	-13.0396
~	-13.1879
á	-13.2713
ã	-13.4622
è	-13.5733
ñ	-13.6983
Ğ	-13.6983
ú	-14.0078
£	-14.2078
ä	-14.2078
ō	-14.4578
©	-14.7911
à	-14.7911
́	-14.7911
¥	-15.2911
­	-15.2911
Á	-15.2911
ô	-15.2911
ī	-15.2911
ย	-15.2911
ร	-15.2911
่	-15.2911
€	-15.2911
ø	-15.2911
É	-15.2912
ï	-16.2892
ê	-16.2893
อ	-16.2894
°	-16.2895
⁄	-16.2896
Â	-16.2897
̈	-16.2898
_	-16.2899
$	-16.29
–	-16.2901
♪	-16.2902
”	-16.2903
/	-16.2904
’	-16.2905
!	-16.2906
♫	-16.2907
—	-16.2908
:	-16.2909
)	-16.291
?	-16.2911
Ō	-16.2911
\	-16.2911
®	-16.2911
æ	-16.2911
ë	-16.2911
ì	-16.2911
ć	-16.2911
ē	-16.2911
š	-16.2911
τ	-16.2911
•	-16.2911
∇	-16.2911
&	-16.2912
Č	-16.2912
